{
  "!": 54,
  "!!": 1243,
  "!!!": 3813,
  "!!!!": 5614,
  "!!!!!": 18341,
  "!!!!!!": 33693,
  "!!!!!!!": 49084,
  "!!!!!!!!": 19852,
  "!!!.": 47674,
  "!!,": 44850,
  "!!.": 43153,
  "!\"": 16640,
  "!\",": 22254,
  "!\".": 23529,
  "!'": 35268,
  "!)": 25521,
  "!).": 43510,
  "!,": 11666,
  "!-": 46970,
  "!.": 13419,
  "!...": 27999,
  "!:": 30806,
  "!:)": 41747,
  "\"": 55,
  "\"\"": 29818,
  "\"(": 49527,
  "\")": 11801,
  "\"),": 18024,
  "\").": 19026,
  "\");": 39390,
  "\",": 675,
  "\",\"": 11712,
  "\"-": 30222,
  "\".": 676,
  "\".\"": 41813,
  "\"...": 13499,
  "\"....": 45538,
  "\":": 6493,
  "\":\"": 14268,
  "\";": 10484,
  "\"?": 17949,
  "\"[": 46151,
  "#": 56,
  "#.": 49170,
  "$": 57,
  "%": 58,
  "%)": 7768,
  "%),": 9212,
  "%).": 11261,
  "%,": 4325,
  "%.": 4664,
  "%;": 33320,
  "&": 59,
  "&#": 42010,
  "'": 60,
  "'\"": 33368,
  "'\",": 38746,
  "'\".": 40244,
  "''": 8883,
  "'',": 45951,
  "')": 14945,
  "'),": 25796,
  "').": 30838,
  "'+": 22417,
  "',": 1630,
  "','": 8242,
  "'.": 3022,
  "'...": 31490,
  "':": 12154,
  "';": 17370,
  "'?": 27912,
  "'s": 5875,
  "'t": 36198,
  "'Â¡": 38276,
  "'Â¿": 38976,
  "(": 61,
  "(\"": 22942,
  "('": 21464,
  "()": 23377,
  "()+',": 47801,
  "();": 35054,
  "({": 30311,
  ")": 62,
  ")\"": 29902,
  ")\",": 30649,
  ")\".": 30982,
  ")'": 33761,
  "))": 29641,
  "),": 856,
  "),'": 48132,
  ")-": 18596,
  ").": 950,
  ").-": 15042,
  ")...": 19040,
  "):": 5465,
  ");": 5127,
  ")?": 36081,
  "*": 63,
  "**": 6585,
  "***": 49346,
  "****": 19589,
  "********": 39510,
  "*,": 44372,
  "+": 64,
  "+'": 29445,
  "+',": 46744,
  "+':'+": 47726,
  "++": 45702,
  "+,": 28893,
  "+.": 27008,
  ",": 65,
  ",\"": 18065,
  ",'": 6573,
  ",'...')": 31684,
  ",'...'))": 31685,
  ",,": 9404,
  ",,,": 37172,
  ",,,,": 31251,
  ",.": 20133,
  ",..": 41201,
  ",...": 5006,
  ",...)": 40071,
  ",....": 40149,
  ",[": 23673,
  ",âĢŃ": 48891,
  "-": 66,
  "-)": 12932,
  "-,": 5773,
  "--": 2184,
  "--,": 18321,
  "---": 40304,
  "----": 5507,
  "--------": 9416,
  "----------------": 16983,
  "--------------------------------": 35794,
  "--.": 28429,
  "-.": 10592,
  "-;": 43841,
  ".": 67,
  ".!": 40335,
  ".\"": 5523,
  ".\",": 34776,
  ".#": 50008,
  ".'": 13084,
  ".(": 19724,
  ".)": 7199,
  ".),": 13921,
  ".).": 16944,
  ".*": 33440,
  ".,": 3796,
  ".-": 2352,
  "..": 419,
  "..,": 46748,
  "..-": 35195,
  "...": 526,
  "...!": 36815,
  "...\"": 11928,
  "...\",": 27337,
  "...\".": 22308,
  "...'": 20411,
  "...')": 31624,
  "...(": 39185,
  "...)": 6337,
  "...),": 20840,
  "...).": 16727,
  "...,": 12692,
  "...-": 38447,
  "....": 1429,
  ".....": 7876,
  "......": 8812,
  ".......": 20021,
  "........": 4667,
  ".........": 30931,
  "..........": 41384,
  "................": 9764,
  "................................": 20648,
  "................................................................": 47917,
  "....@": 45586,
  "...:": 46369,
  "...?": 26314,
  "...[": 39964,
  "...]": 2377,
  "...]]>": 27630,
  "...Â¡": 31737,
  "...Â¿": 28954,
  "..@": 38459,
  "..]": 32631,
  "./": 31238,
  ".:": 11419,
  ".;": 17414,
  ".?": 33743,
  ".@": 10848,
  ".[": 6766,
  ".\\": 37415,
  ".]": 48639,
  ".Â¡": 22787,
  ".Â·": 48829,
  ".Â»": 16579,
  ".Â¿": 19781,
  ".âĢ¢": 25631,
  ".âĢĵ": 30350,
  ".âĢĶ": 37318,
  "/": 68,
  "/\"": 33283,
  "/-": 38725,
  "/.": 40316,
  "/...": 8681,
  "//": 1397,
  "/?": 20518,
  "/_": 25380,
  "0": 69,
  "00": 539,
  "000": 1162,
  "001": 30334,
  "002": 47861,
  "01": 8608,
  "0100": 49405,
  "02": 10052,
  "0200": 39007,
  "03": 9839,
  "04": 9349,
  "05": 8221,
  "06": 8822,
  "07": 8815,
  "08": 8693,
  "09": 8546,
  "1": 70,
  "10": 3086,
  "100": 9817,
  "1000": 49197,
  "101": 42235,
  "102": 30621,
  "103": 46673,
  "104": 45011,
  "105": 41929,
  "106": 45172,
  "107": 47132,
  "11": 4171,
  "110": 31917,
  "112": 31768,
  "115": 44812,
  "12": 3871,
  "120": 28397,
  "121": 46687,
  "123": 45732,
  "125": 43548,
  "127": 48087,
  "128": 48770,
  "13": 5542,
  "130": 38698,
  "14": 5652,
  "140": 40670,
  "15": 4454,
  "150": 27121,
  "155": 49406,
  "16": 4976,
  "160": 48354,
  "161": 39110,
  "17": 5304,
  "170": 47254,
  "18": 4504,
  "180": 44931,
  "19": 2589,
  "1984": 44507,
  "1985": 37675,
  "1986": 47341,
  "1987": 48339,
  "1988": 42965,
  "1989": 46517,
  "199": 8709,
  "1990": 41000,
  "1991": 46997,
  "1992": 25166,
  "1993": 43187,
  "1994": 38550,
  "1995": 32657,
  "1996": 32769,
  "1997": 33054,
  "1998": 30309,
  "1999": 12346,
  "2": 71,
  "20": 1379,
  "200": 3279,
  "2000": 21311,
  "2001": 27180,
  "2002": 18874,
  "2003": 19458,
  "2004": 22203,
  "2005": 22531,
  "2006": 16958,
  "2007": 12217,
  "2008": 14769,
  "2009": 13867,
  "201": 2128,
  "2010": 11425,
  "2011": 9927,
  "2012": 13092,
  "2013": 15135,
  "2014": 18685,
  "2015": 14031,
  "2016": 12082,
  "20160": 47423,
  "2017": 10196,
  "2018": 9237,
  "2019": 7820,
  "20190": 25401,
  "2020": 18042,
  "21": 6153,
  "210": 49261,
  "214": 43687,
  "22": 5658,
  "220": 50184,
  "227": 46511,
  "23": 6231,
  "230": 43021,
  "232": 45079,
  "24": 5494,
  "240": 49531,
  "25": 5023,
  "250": 29473,
  "255": 49359,
  "26": 6305,
  "27": 7133,
  "28": 6528,
  "280": 46356,
  "29": 7316,
  "3": 72,
  "30": 2373,
  "300": 11477,
  "31": 9121,
  "32": 9666,
  "320": 42146,
  "33": 8897,
  "330": 45351,
  "34": 8204,
  "340": 38839,
  "35": 6700,
  "350": 34253,
  "36": 6566,
  "360": 34050,
  "365": 41225,
  "37": 7828,
  "38": 7131,
  "380": 43250,
  "388": 43351,
  "39": 7288,
  "4": 73,
  "40": 4497,
  "400": 12003,
  "409": 46183,
  "41": 12422,
  "410": 35947,
  "411": 39677,
  "413": 44193,
  "415": 44773,
  "417": 47049,
  "418": 48988,
  "42": 11439,
  "420": 42037,
  "424": 38716,
  "43": 12145,
  "44": 10314,
  "45": 6335,
  "450": 43957,
  "46": 7926,
  "47": 9683,
  "48": 8729,
  "49": 9705,
  "5": 74,
  "50": 3339,
  "500": 5833,
  "51": 17253,
  "52": 16321,
  "53": 17098,
  "54": 16771,
  "55": 10947,
  "56": 15411,
  "57": 15362,
  "58": 17704,
  "59": 13351,
  "6": 75,
  "60": 5263,
  "600": 12983,
  "61": 13661,
  "62": 16964,
  "63": 17602,
  "64": 16628,
  "65": 9254,
  "650": 49493,
  "66": 10984,
  "67": 12203,
  "68": 11563,
  "69": 13008,
  "7": 76,
  "70": 6089,
  "700": 15259,
  "703": 15493,
  "71": 17822,
  "72": 16679,
  "73": 17539,
  "74": 16180,
  "75": 8979,
  "750": 39274,
  "76": 14389,
  "77": 11735,
  "78": 14550,
  "79": 13576,
  "8": 77,
  "80": 6183,
  "800": 13696,
  "81": 16141,
  "82": 14998,
  "83": 15515,
  "84": 14981,
  "85": 9917,
  "86": 12688,
  "87": 11219,
  "88": 10345,
  "89": 12356,
  "9": 78,
  "90": 6468,
  "900": 20297,
  "91": 21291,
  "92": 15403,
  "93": 17995,
  "94": 20704,
  "95": 10009,
  "96": 19471,
  "97": 19603,
  "98": 17415,
  "99": 5935,
  ":": 79,
  ":\"": 23954,
  ":'": 6321,
  ":''": 25435,
  ":'+": 47640,
  ":(": 39817,
  ":)": 9010,
  ":-": 18821,
  ":-)": 32755,
  ":.": 35597,
  ":...": 27950,
  "://": 1427,
  "::": 10337,
  "::::": 31801,
  ";": 80,
  ";'": 37147,
  ";)": 13639,
  ";-)": 33968,
  "<": 81,
  "</s>": 2,
  "<mask>": 50261,
  "<pad>": 1,
  "<s>": 0,
  "<unk>": 3,
  "=": 82,
  "=\"": 36401,
  "='": 46087,
  "==": 31156,
  ">": 83,
  ">>": 36665,
  "?": 84,
  "?\"": 11950,
  "?\",": 14185,
  "?\".": 16525,
  "?'": 32606,
  "?)": 21739,
  "?),": 45227,
  "?).": 38195,
  "?,": 7376,
  "?-": 25352,
  "?.": 6668,
  "?...": 17413,
  "?:": 20850,
  "?;": 48553,
  "??": 4063,
  "???": 15650,
  "????": 12348,
  "????????": 33363,
  "?Â¿": 20180,
  "@": 85,
  "@@": 5230,
  "@@@@": 8469,
  "@@@@@@@@": 13731,
  "@@@@@@@@@@@@@@@@": 22752,
  "@@@@@@@@@@@@@@@@@@@@@@@@@@@@@@@@": 39582,
  "A": 86,
  "AA": 10135,
  "AAAA": 27271,
  "AB": 4406,
  "ABA": 38793,
  "ABC": 44853,
  "ABLE": 27029,
  "AC": 4635,
  "AD": 1272,
  "ADA": 5867,
  "ADAS": 13598,
  "ADE": 21028,
  "ADEM": 48097,
  "ADI": 34605,
  "ADO": 4170,
  "ADOR": 12349,
  "ADORA": 31564,
  "ADORES": 19861,
  "ADOS": 5426,
  "ADR": 9553,
  "ADRID": 10709,
  "AE": 29414,
  "AEMET": 43457,
  "AF": 31550,
  "AG": 18462,
  "AGA": 35639,
  "AH": 40053,
  "AI": 29575,
  "AL": 1143,
  "ALA": 29164,
  "ALE": 41434,
  "ALES": 6371,
  "ALEZ": 47079,
  "ALL": 20461,
  "ALLA": 47739,
  "ALO": 34911,
  "AM": 2811,
  "AME": 47796,
  "AMENTE": 31495,
  "AMIENTO": 24813,
  "AMOS": 16813,
  "AN": 1170,
  "ANA": 8190,
  "ANAS": 34007,
  "ANC": 42305,
  "ANCA": 42960,
  "ANCIA": 34372,
  "AND": 15083,
  "ANDA": 44833,
  "ANDEZ": 45246,
  "ANDO": 12345,
  "ANIA": 36393,
  "ANO": 11627,
  "ANOS": 17185,
  "ANS": 40697,
  "ANT": 6824,
  "ANTAS": 35901,
  "ANTE": 12060,
  "ANTES": 17872,
  "ANTIL": 30685,
  "ANZA": 23808,
  "AP": 13424,
  "APA": 34837,
  "AR": 1042,
  "ARA": 9493,
  "ARAGO": 43602,
  "ARAGOZA": 44203,
  "ARC": 9016,
  "ARCEL": 12869,
  "ARCELONA": 13160,
  "ARD": 19704,
  "ARDO": 48371,
  "ARE": 37581,
  "ARES": 16099,
  "ARET": 29440,
  "ARETHIS": 30819,
  "ARIA": 12684,
  "ARIAS": 32404,
  "ARIO": 7210,
  "ARIOS": 13286,
  "ARO": 29751,
  "ARR": 15339,
  "ARROL": 30090,
  "ARSE": 49800,
  "ART": 45345,
  "ARTE": 39675,
  "ARV": 49030,
  "AS": 1028,
  "ASA": 11385,
  "ASCO": 28098,
  "AT": 4149,
  "ATOR": 26789,
  "ATORIO": 33313,
  "ATOS": 21179,
  "ATRO": 23928,
  "ATURA": 27001,
  "AU": 29761,
  "AV": 15234,
  "AY": 34258,
  "Ab": 29528,
  "Abr": 44170,
  "Ac": 11588,
  "Acaso": 32033,
  "Acep": 48980,
  "Actividades": 48882,
  "Actualidad": 40185,
  "Ad": 10594,
  "Adel": 47258,
  "AdemÃ¡s": 28959,
  "Administrativo": 31632,
  "Af": 38211,
  "Ah": 31892,
  "Ahora": 13347,
  "Air": 47653,
  "Al": 2692,
  "Ala": 26453,
  "AlagÃ³n": 37920,
  "Alba": 20562,
  "Albacete": 23410,
  "AlbaceteAlcalÃ¡": 38308,
  "Albert": 21142,
  "Alc": 19036,
  "Alca": 34696,
  "Alcal": 19918,
  "AlcalÃ¡": 21264,
  "AlcaÃ±iz": 36904,
  "Alco": 30269,
  "Alcobendas": 29619,
  "Alcoy": 35149,
  "AlcoyAlgecirasAlhama": 38368,
  "AlcÃ¡zar": 36976,
  "Ale": 19329,
  "Alemania": 25443,
  "Alf": 38687,
  "Algeciras": 30481,
  "AlgecirasAlhama": 38341,
  "Alguien": 28359,
  "Alguna": 45114,
  "Algunos": 46353,
  "Alhama": 37312,
  "Alicante": 15632,
  "All": 43962,
  "Alm": 15749,
  "AlmadÃ©n": 38049,
  "AlmadÃ©nAlmendralejoAlmerÃŃaAltsasu": 38385,
  "Almeida": 46479,
  "Almend": 31836,
  "Almendralejo": 32525,
  "AlmendralejoAlmerÃŃa": 33296,
  "AlmendralejoAlmerÃŃaAltsasu": 38362,
  "AlmerÃŃa": 17323,
  "Altsasu": 34294,
  "Am": 15273,
  "Ama": 47455,
  "Amar": 47029,
  "Americ": 45523,
  "Amor": 50249,
  "An": 5227,
  "Ana": 29308,
  "And": 19466,
  "Andal": 16768,
  "Andalucia": 44843,
  "AndalucÃŃa": 23081,
  "AndÃºjar": 32334,
  "AndÃºjarAracena": 38312,
  "AndÃºjarAracenaAranda": 38395,
  "Ante": 35538,
  "Antes": 32944,
  "Antonio": 27801,
  "Ap": 29927,
  "Apo": 48920,
  "App": 14236,
  "AquÃŃ": 18263,
  "Ar": 5708,
  "Ara": 40076,
  "Aracena": 37998,
  "AragÃ³n": 43145,
  "Aran": 19579,
  "Aranda": 31527,
  "Aranjuez": 36435,
  "Arch": 25605,
  "Archidona": 37481,
  "ArchidonaArnedoArrecifeÃģvilaAvilÃ©s": 38375,
  "Argentina": 33339,
  "Arnedo": 36356,
  "ArnedoArrecifeÃģvilaAvilÃ©s": 38370,
  "Arrecife": 32680,
  "ArrecifeÃģvila": 33299,
  "ArrecifeÃģvilaAvilÃ©s": 38363,
  "Arrimadas": 43129,
  "Art": 24466,
  "Arte": 36626,
  "As": 7174,
  "AsociaciÃ³n": 24632,
  "Asturi": 19863,
  "Asturias": 24822,
  "Asturies": 48306,
  "AsÃŃ": 23615,
  "At": 24725,
  "Athletic": 44867,
  "AtlÃ©tico": 40133,
  "Au": 38582,
  "Aunque": 26814,
  "Austr": 39062,
  "Auto": 39302,
  "Autor": 47023,
  "Av": 35743,
  "AvilÃ©s": 33379,
  "Ay": 12390,
  "Ayamonte": 37598,
  "AyamonteBadajozBaena": 38377,
  "AyamonteBadajozBaenaBarbastroBarcelonaBazaBÃ©jarBenaventeBenicarlÃ³BenissaBilbaoBurgosCabraCÃ¡ceresCÃ¡dizCalahorraCalatayudCambrilsCartagenaCaspe": 38428,
  "Ayto": 39014,
  "Az": 40099,
  "AÃ±o": 47472,
  "AÃºn": 36303,
  "B": 87,
  "BA": 4901,
  "BADO": 49682,
  "BAL": 26720,
  "BAN": 23150,
  "BAR": 33586,
  "BAS": 23460,
  "BB": 20467,
  "BC": 17247,
  "BCE": 43258,
  "BD": 45285,
  "BE": 18852,
  "BER": 20323,
  "BI": 8358,
  "BIEN": 30784,
  "BILI": 44725,
  "BIÃīN": 40102,
  "BL": 8057,
  "BLA": 45097,
  "BLE": 20546,
  "BLES": 29191,
  "BLO": 28479,
  "BM": 42594,
  "BN": 43586,
  "BNE": 48573,
  "BO": 11716,
  "BOE": 26364,
  "BOOK": 44338,
  "BR": 11056,
  "BRA": 42626,
  "BRE": 8293,
  "BRES": 36610,
  "BS": 27572,
  "BU": 41605,
  "BUS": 49710,
  "Ba": 12499,
  "Badajoz": 19605,
  "BadajozBaena": 38335,
  "Baena": 37264,
  "Bal": 33441,
  "Ban": 15272,
  "Bank": 21397,
  "Bar": 6916,
  "Bara": 22135,
  "Barato": 24097,
  "Barbastro": 37419,
  "BarbastroBarcelonaBazaBÃ©jar": 38374,
  "BarbastroBarcelonaBazaBÃ©jarBenaventeBenicarlÃ³BenissaBilbaoBurgosCabraCÃ¡ceresCÃ¡dizCalahorraCalatayudCambrilsCartagenaCaspe": 38427,
  "Barcelona": 9364,
  "BarcelonaBaza": 33153,
  "BarcelonaBazaBÃ©jar": 38352,
  "Bas": 30976,
  "Baza": 31446,
  "Be": 26330,
  "Bea": 48524,
  "Bel": 39872,
  "Ben": 14014,
  "Benavente": 36991,
  "BenaventeBenicarlÃ³": 38372,
  "BenaventeBenicarlÃ³BenissaBilbaoBurgosCabraCÃ¡ceresCÃ¡dizCalahorraCalatayudCambrilsCartagenaCaspe": 38425,
  "BenicarlÃ³": 38052,
  "Benissa": 32970,
  "BenissaBilbaoBurgos": 33170,
  "BenissaBilbaoBurgosCabra": 38358,
  "BenissaBilbaoBurgosCabraCÃ¡ceresCÃ¡dizCalahorraCalatayudCambrilsCartagenaCaspe": 38420,
  "Benz": 36429,
  "Ber": 23246,
  "Berry": 41647,
  "Bes": 35656,
  "Besos": 27038,
  "Biblio": 45656,
  "Biblioteca": 48161,
  "Bien": 29463,
  "Bil": 19018,
  "Bilbao": 22338,
  "BilbaoBurgos": 33094,
  "Bird": 44467,
  "Bizkaia": 47996,
  "Bl": 33137,
  "Bla": 28547,
  "Black": 32368,
  "Blog": 32720,
  "Bo": 12914,
  "Bol": 41963,
  "BoletÃŃn": 38080,
  "Book": 32374,
  "Bor": 36553,
  "Bot": 44441,
  "Box": 49937,
  "Br": 26155,
  "Bra": 45548,
  "Brasil": 42070,
  "Bre": 25341,
  "Breaking": 29300,
  "BreakingWords": 31773,
  "Brexit": 29700,
  "Bron": 42667,
  "Bt": 45823,
  "Bu": 42376,
  "Buen": 18507,
  "Bueno": 34410,
  "Buenos": 37650,
  "Bur": 16076,
  "Burgos": 19613,
  "Bus": 16592,
  "Buscar": 49064,
  "Buscas": 37033,
  "By": 45673,
  "BÃ©jar": 37843,
  "C": 88,
  "CA": 3438,
  "CAA": 19992,
  "CAL": 12894,
  "CAM": 27876,
  "CAN": 23204,
  "CAP": 43567,
  "CAR": 16867,
  "CAS": 25547,
  "CAT": 15931,
  "CB": 38894,
  "CC": 13231,
  "CCOO": 41071,
  "CD": 10734,
  "CE": 3750,
  "CED": 28812,
  "CEE": 41691,
  "CEEI": 44490,
  "CEL": 28070,
  "CEN": 39663,
  "CEP": 23535,
  "CER": 31293,
  "CES": 11740,
  "CETA": 50130,
  "CF": 33603,
  "CG": 49415,
  "CH": 3434,
  "CHA": 16135,
  "CHE": 21456,
  "CHES": 37860,
  "CHEZ": 29817,
  "CHO": 18567,
  "CI": 1048,
  "CIA": 4440,
  "CIAL": 10840,
  "CIALES": 42403,
  "CIAS": 9699,
  "CIC": 44585,
  "CID": 25814,
  "CIDAD": 28671,
  "CIDO": 42469,
  "CIL": 31772,
  "CIM": 24729,
  "CIMIENTO": 32234,
  "CIN": 16284,
  "CINA": 22827,
  "CIO": 9041,
  "CION": 2876,
  "CIONA": 48471,
  "CIONAL": 13504,
  "CIONALES": 46660,
  "CIONARIO": 45205,
  "CIONES": 6050,
  "CIOS": 12133,
  "CIP": 29079,
  "CIR": 36122,
  "CIS": 16823,
  "CIÃĵN": 3253,
  "CK": 25843,
  "CL": 9405,
  "CLM": 27234,
  "CLU": 26569,
  "CLUS": 35576,
  "CM": 27731,
  "CN": 10486,
  "CNMV": 38970,
  "CO": 3330,
  "COL": 48528,
  "COM": 13524,
  "CON": 11237,
  "COO": 8292,
  "COP": 31966,
  "COPE": 45174,
  "COR": 29560,
  "COS": 21557,
  "CP": 40815,
  "CR": 10515,
  "CRE": 26380,
  "CRETO": 46850,
  "CRIP": 28103,
  "CRIPCIÃĵN": 42997,
  "CS": 12266,
  "CSIC": 26344,
  "CT": 30431,
  "CU": 8833,
  "CUL": 27382,
  "CULO": 35700,
  "CUR": 23599,
  "CURSO": 32285,
  "CV": 24104,
  "CZ": 44712,
  "Ca": 9057,
  "Cab": 37262,
  "Cabra": 36913,
  "Cada": 23600,
  "Caixa": 45149,
  "Caja": 34777,
  "Cal": 13894,
  "Cala": 22093,
  "Calahorra": 34360,
  "Calatayud": 36825,
  "CalatayudCambrilsCartagenaCaspe": 38371,
  "Calle": 36516,
  "Calpe": 41595,
  "Cam": 12753,
  "Cambio": 32131,
  "Cambr": 34325,
  "Cambrils": 35693,
  "CambrilsCartagenaCaspe": 38369,
  "Camino": 46883,
  "Camp": 40587,
  "Can": 8798,
  "Canal": 48941,
  "Canarias": 24721,
  "Cantabria": 21258,
  "Cap": 37115,
  "Car": 8567,
  "Cara": 32307,
  "Carlos": 33331,
  "Carmen": 38562,
  "Cartagena": 27868,
  "CartagenaCaspe": 38338,
  "Cas": 6907,
  "Casa": 26590,
  "Casas": 43087,
  "Caspe": 37331,
  "CastellÃ³n": 21814,
  "Castilla": 33136,
  "Castro": 29031,
  "Cat": 15886,
  "Catal": 20016,
  "Catalunya": 38778,
  "CataluÃ±a": 34030,
  "Ce": 25053,
  "Cel": 37004,
  "Celta": 50104,
  "Cen": 29128,
  "Centro": 22539,
  "Cer": 20705,
  "Cero": 42831,
  "Cerrar": 36326,
  "Cerv": 28388,
  "Cervera": 36868,
  "Ceuta": 31764,
  "CeutaChantada": 38343,
  "CeutaChantadaCiudad": 38412,
  "Ch": 8618,
  "Cha": 44272,
  "Chan": 31176,
  "Chantada": 38053,
  "Char": 48585,
  "Chef": 41574,
  "Chile": 49661,
  "China": 40759,
  "Ci": 39132,
  "Ciencia": 43410,
  "Cin": 38846,
  "Cine": 41352,
  "Cir": 44542,
  "Ciudad": 9027,
  "Ciudadanos": 15636,
  "CiudadanosCs": 24347,
  "Cl": 19430,
  "Cla": 31239,
  "Clar": 37236,
  "Claro": 47559,
  "Clas": 47859,
  "Claude": 46125,
  "Club": 37062,
  "Co": 9701,
  "Col": 17044,
  "Cola": 24388,
  "Colombia": 44567,
  "Com": 6378,
  "Comentario": 32985,
  "Comer": 38000,
  "Como": 13440,
  "Compartir": 46919,
  "Compr": 27883,
  "Comprar": 48017,
  "Comun": 35087,
  "Comunidad": 36260,
  "Con": 3779,
  "Conf": 30826,
  "Congreso": 22955,
  "Cono": 28097,
  "Conoces": 44751,
  "Cons": 13918,
  "Conse": 33784,
  "Consigue": 46486,
  "Contac": 49121,
  "Contigo": 50162,
  "Contra": 34750,
  "Control": 47671,
  "Coo": 46785,
  "Cookies": 45777,
  "Cor": 13091,
  "Coria": 36823,
  "CoruÃ±a": 28986,
  "Cos": 24502,
  "Costa": 36652,
  "Cr": 30894,
  "Cre": 12246,
  "Crea": 43271,
  "Cree": 32390,
  "Creemos": 44101,
  "Crees": 34202,
  "Creo": 18031,
  "Cris": 28947,
  "Cruz": 46456,
  "Cs": 9600,
  "Cu": 4043,
  "Cual": 31625,
  "Cualquier": 48125,
  "Cuando": 10771,
  "Cuatro": 45371,
  "Cuen": 21579,
  "Cuenca": 25101,
  "CuencaDÃ©niaDonostiaEibarEivissa": 38336,
  "Cul": 16722,
  "Cultura": 19767,
  "Cur": 25883,
  "Curso": 39010,
  "CuÃ¡l": 12260,
  "CuÃ¡les": 20234,
  "CuÃ¡n": 13871,
  "CuÃ¡ndo": 23721,
  "CuÃ¡ntas": 34954,
  "CuÃ¡nto": 23582,
  "CuÃ¡ntos": 31810,
  "CuÃ©llar": 37574,
  "CyL": 39657,
  "CÃ¡": 10915,
  "CÃ¡ceres": 21676,
  "CÃ¡ceresCÃ¡diz": 31880,
  "CÃ¡ceresCÃ¡dizCalahorra": 38346,
  "CÃ¡ceresCÃ¡dizCalahorraCalatayudCambrilsCartagenaCaspe": 38415,
  "CÃ¡diz": 14708,
  "CÃ³digo": 42228,
  "CÃ³mo": 5161,
  "CÃ³rdoba": 18325,
  "D": 89,
  "DA": 5323,
  "DAD": 10541,
  "DAN": 47935,
  "DAS": 24208,
  "DB": 39916,
  "DC": 22191,
  "DD": 12138,
  "DDDD": 48108,
  "DE": 4130,
  "DEF": 44317,
  "DEN": 15386,
  "DER": 31995,
  "DES": 17792,
  "DEZ": 22379,
  "DGT": 47329,
  "DI": 7621,
  "DIA": 42739,
  "DIC": 44130,
  "DICIONES": 25600,
  "DICO": 38494,
  "DIREC": 48825,
  "DL": 39237,
  "DM": 36522,
  "DO": 4180,
  "DOBA": 45380,
  "DOS": 19101,
  "DP": 49259,
  "DQ": 32218,
  "DR": 24149,
  "DS": 15371,
  "DT": 15634,
  "DU": 25775,
  "DUC": 17007,
  "DV": 47424,
  "DVD": 49410,
  "Da": 28099,
  "Dan": 43463,
  "Date": 38031,
  "David": 36204,
  "De": 4316,
  "DeLa": 39051,
  "Deb": 18172,
  "Debate": 34551,
  "Debemos": 40737,
  "Dec": 36209,
  "Def": 32076,
  "Del": 15436,
  "Dem": 39247,
  "Demas": 49850,
  "Deportivo": 40384,
  "Der": 25716,
  "Derechos": 50028,
  "Des": 6911,
  "Desarrol": 45671,
  "Desd": 15648,
  "Desde": 15701,
  "DespuÃ©s": 31282,
  "Di": 11196,
  "Dia": 26303,
  "Diario": 29487,
  "Digital": 35820,
  "Dios": 34184,
  "Direc": 31337,
  "DirecciÃ³n": 47122,
  "Director": 35673,
  "Dis": 17105,
  "Disfru": 42791,
  "Do": 25317,
  "Doc": 33816,
  "Docu": 44134,
  "Domin": 40724,
  "Don": 19979,
  "Donald": 34615,
  "Donde": 42280,
  "Donostia": 29458,
  "DonostiaEibarEivissa": 33162,
  "Dos": 29572,
  "Dr": 36850,
  "Du": 41276,
  "Durante": 34794,
  "DÃ©nia": 32455,
  "DÃ©niaDonostiaEibarEivissa": 33169,
  "DÃ³nde": 17038,
  "DÃŃa": 17086,
  "E": 90,
  "EA": 10714,
  "EB": 8475,
  "EC": 2607,
  "ECA": 25992,
  "ECE": 36232,
  "ECES": 22569,
  "ECH": 30612,
  "ECHO": 47123,
  "ECO": 37545,
  "ECU": 40451,
  "ED": 2751,
  "EDA": 27432,
  "EDAD": 12413,
  "EDADES": 45313,
  "EDIA": 18292,
  "EDO": 26472,
  "EDOR": 40867,
  "EE": 9876,
  "EEEE": 47262,
  "EEUU": 33815,
  "EF": 12455,
  "EFE": 17310,
  "EG": 10172,
  "EH": 19588,
  "EHU": 41656,
  "EI": 14898,
  "EJ": 40104,
  "EL": 2625,
  "ELA": 14403,
  "ELL": 22427,
  "ELLA": 44672,
  "ELO": 19381,
  "EM": 3539,
  "EMA": 3990,
  "EMAIL": 4411,
  "EMAS": 32981,
  "EMBRE": 28357,
  "EMET": 26140,
  "EMOS": 13366,
  "EMP": 16256,
  "EMPO": 28167,
  "EMPRE": 30129,
  "EN": 1055,
  "ENA": 9191,
  "ENCI": 27398,
  "ENCIA": 8438,
  "ENCIAS": 26564,
  "END": 10113,
  "ENDA": 31889,
  "ENDER": 49190,
  "ENDO": 36296,
  "ENE": 49973,
  "ENER": 11661,
  "ENES": 9337,
  "ENO": 17674,
  "ENOS": 46310,
  "ENS": 16837,
  "ENSA": 26375,
  "ENT": 5261,
  "ENTA": 11992,
  "ENTACIÃĵN": 33866,
  "ENTAL": 36173,
  "ENTE": 7085,
  "ENTER": 23368,
  "ENTES": 17507,
  "ENTO": 15676,
  "ENTOS": 16888,
  "ENTRO": 18432,
  "EO": 13278,
  "EP": 14198,
  "EPA": 41773,
  "ER": 889,
  "ERA": 6808,
  "ERACIÃĵN": 33131,
  "ERAS": 26260,
  "ERC": 13306,
  "ERE": 37621,
  "ERG": 30036,
  "ERIA": 17669,
  "ERIC": 45094,
  "ERM": 16641,
  "ERN": 12531,
  "ERNES": 46396,
  "ERO": 7249,
  "EROS": 18048,
  "ERR": 15151,
  "ERRA": 17637,
  "ERS": 11708,
  "ERT": 26233,
  "ERTA": 21162,
  "ERTAS": 38646,
  "ERTE": 28632,
  "ERTO": 34138,
  "ERV": 7611,
  "ERVA": 50151,
  "ERÃįA": 20805,
  "ES": 931,
  "ESA": 14909,
  "ESCO": 19827,
  "ESO": 41619,
  "ESP": 37308,
  "ESPAÃĳA": 39441,
  "EST": 25926,
  "ESTE": 42130,
  "ESTI": 16619,
  "ET": 5583,
  "ETA": 20633,
  "ETAS": 37149,
  "ETE": 49632,
  "EU": 27533,
  "EURO": 24038,
  "EUROPA": 25737,
  "EV": 46920,
  "EW": 45134,
  "EX": 13434,
  "EZ": 7261,
  "EZA": 27369,
  "Ebre": 33848,
  "EbreMorella": 38365,
  "EbreMorellaMÃ³stolesMotilla": 38422,
  "Econ": 35232,
  "Ed": 27116,
  "Edi": 36169,
  "Edu": 50175,
  "EducaciÃ³n": 37277,
  "Eibar": 26207,
  "EibarEivissa": 33161,
  "Eivissa": 31384,
  "Ej": 24068,
  "Ejea": 37512,
  "Ejido": 32765,
  "El": 1538,
  "Elche": 25240,
  "ElcheElda": 33144,
  "Elda": 32463,
  "Elec": 23406,
  "Elecciones": 30802,
  "Ellos": 49187,
  "Em": 28751,
  "Emp": 13856,
  "Emprend": 40834,
  "Empres": 41705,
  "Empresa": 45980,
  "En": 2707,
  "Enhorabuena": 42227,
  "Entonces": 40717,
  "Entre": 21389,
  "Entry": 30664,
  "Enviar": 48665,
  "Equi": 32629,
  "Equipo": 47556,
  "Equo": 50033,
  "Er": 30779,
  "Era": 27186,
  "Eres": 20376,
  "Es": 1529,
  "Esa": 39567,
  "Escrito": 29068,
  "Escu": 39145,
  "Escuela": 39959,
  "Ese": 39953,
  "Eso": 22453,
  "Esp": 25597,
  "Espa": 34779,
  "Espacio": 47989,
  "Espana": 43430,
  "EspaÃ±a": 8061,
  "EspaÃ±ol": 46214,
  "Espe": 31589,
  "Esper": 25346,
  "Esperamos": 39653,
  "Espero": 28610,
  "Esquadra": 19633,
  "Esta": 12378,
  "Estaba": 49909,
  "Estado": 32522,
  "Estados": 23846,
  "Estamos": 11956,
  "Estas": 33596,
  "Este": 10267,
  "Estella": 35939,
  "Estepa": 37810,
  "Esto": 9728,
  "Estos": 30591,
  "Estoy": 15401,
  "EstÃ¡": 17607,
  "EstÃ¡n": 36483,
  "EstÃ¡s": 17543,
  "Euro": 13238,
  "Europa": 21821,
  "Europe": 37732,
  "Eusk": 29036,
  "Euskadi": 34700,
  "Ev": 41484,
  "Ex": 8630,
  "Existe": 38210,
  "Exper": 40787,
  "Extre": 35327,
  "Extremadura": 40243,
  "F": 91,
  "FA": 9488,
  "FB": 50254,
  "FC": 13677,
  "FD": 46302,
  "FE": 6763,
  "FEC": 29634,
  "FED": 49614,
  "FER": 41091,
  "FES": 17416,
  "FF": 19738,
  "FG": 38973,
  "FI": 29971,
  "FIA": 37405,
  "FICA": 50158,
  "FICO": 39727,
  "FIL": 48308,
  "FK": 49781,
  "FL": 26439,
  "FM": 32614,
  "FN": 49203,
  "FO": 20594,
  "FORMA": 44558,
  "FP": 24494,
  "FR": 21338,
  "FRA": 47533,
  "FS": 29646,
  "FT": 25425,
  "FU": 41803,
  "FV": 40362,
  "FW": 49387,
  "Fa": 21596,
  "Facebook": 42898,
  "Fal": 47740,
  "Fe": 30476,
  "Feder": 34969,
  "Federico": 38808,
  "Fel": 15766,
  "Feliz": 22157,
  "Fer": 19555,
  "Fernando": 42318,
  "Ferrol": 33203,
  "FerrolFigueres": 38361,
  "Festival": 49676,
  "Fi": 11552,
  "Figueres": 36974,
  "Fil": 28213,
  "Fin": 26753,
  "Fl": 48217,
  "Flor": 41873,
  "Fo": 35134,
  "For": 23417,
  "Form": 34276,
  "Foro": 45168,
  "Foto": 21637,
  "Fr": 27385,
  "Fran": 12956,
  "Francia": 22281,
  "Francisco": 38792,
  "Fron": 31287,
  "Frontera": 35740,
  "Fu": 17568,
  "Fue": 23427,
  "Fuente": 44004,
  "Full": 41050,
  "FullYear": 44847,
  "Fun": 39750,
  "Fund": 49738,
  "FundaciÃ³n": 45329,
  "Futuro": 49231,
  "G": 92,
  "GA": 5779,
  "GACIÃĵN": 41022,
  "GADO": 40060,
  "GAE": 19756,
  "GAL": 17683,
  "GALERÃįA": 45804,
  "GAN": 17718,
  "GAR": 16840,
  "GAS": 24413,
  "GB": 14734,
  "GC": 18808,
  "GD": 27113,
  "GE": 11011,
  "GEL": 31411,
  "GEN": 15356,
  "GER": 42273,
  "GES": 28453,
  "GG": 43096,
  "GH": 24490,
  "GI": 26773,
  "GIA": 39984,
  "GL": 37024,
  "GM": 30717,
  "GN": 31898,
  "GO": 5931,
  "GON": 35129,
  "GOR": 35751,
  "GOS": 20615,
  "GOU": 34120,
  "GP": 11137,
  "GPJ": 22708,
  "GR": 14856,
  "GRA": 12371,
  "GRAF": 29411,
  "GRES": 32923,
  "GRESO": 39961,
  "GS": 23505,
  "GT": 4770,
  "GU": 6545,
  "GUA": 18200,
  "GUE": 29425,
  "GUN": 24682,
  "GV": 44179,
  "Ga": 40093,
  "Gal": 18380,
  "Galicia": 31577,
  "Gallar": 49193,
  "Gan": 32296,
  "Gandia": 32273,
  "GandiaGijÃ³nGironaGranada": 33168,
  "Gar": 23517,
  "Gas": 41271,
  "Gaste": 17246,
  "Gasteiz": 17271,
  "GasteizViveiro": 38306,
  "GasteizViveiroXÃłtivaXinzo": 38393,
  "Ge": 39360,
  "Gener": 28135,
  "General": 45434,
  "Ger": 32318,
  "Gest": 49610,
  "Getafe": 43310,
  "GijÃ³n": 25878,
  "GijÃ³nGironaGranada": 33109,
  "Gir": 17371,
  "Girona": 18857,
  "GironaGranada": 32167,
  "Glo": 43612,
  "Go": 19202,
  "Gobierno": 29268,
  "Gonz": 44291,
  "Google": 42467,
  "Gor": 49221,
  "Gr": 47570,
  "Gra": 11292,
  "Gracias": 14542,
  "Gran": 9030,
  "Granada": 14352,
  "Grand": 48616,
  "Graus": 38037,
  "GrausGuadalajaraGuadixHaro": 38384,
  "Gre": 33294,
  "Gru": 24260,
  "Grupo": 25983,
  "Gu": 9224,
  "Guadalajara": 23217,
  "GuadalajaraGu": 31838,
  "GuadalajaraGuadix": 33155,
  "GuadalajaraGuadixHaro": 38353,
  "Guer": 48782,
  "GuÃŃa": 43516,
  "H": 93,
  "HA": 14248,
  "HC": 30522,
  "HD": 34401,
  "HE": 18212,
  "HH": 18876,
  "HIS": 25759,
  "HL": 24157,
  "HO": 16712,
  "HS": 28944,
  "HT": 35005,
  "HTML": 23457,
  "HU": 45742,
  "HY": 49162,
  "Ha": 8598,
  "Hab": 15953,
  "HabrÃ¡": 40951,
  "Hace": 27342,
  "Hacia": 45272,
  "Han": 27264,
  "Haro": 35169,
  "Has": 18728,
  "Hasta": 20204,
  "Hay": 7818,
  "Haz": 32043,
  "He": 14817,
  "Hemos": 14279,
  "Her": 19027,
  "His": 20493,
  "Historia": 31654,
  "Ho": 19977,
  "Hola": 28941,
  "Honda": 49756,
  "Hor": 34038,
  "Hora": 33133,
  "Hos": 23459,
  "Hospital": 29028,
  "Hospitalet": 39288,
  "Hotel": 43184,
  "Hoy": 12905,
  "Hu": 45814,
  "Huelva": 17474,
  "HuelvaHuesca": 31710,
  "HuelvaHuescaIrun": 33154,
  "HuelvaHuescaIrunJaca": 38314,
  "HuelvaHuescaIrunJacaJaÃ©nJerez": 38397,
  "Huesca": 20221,
  "Hz": 41775,
  "I": 94,
  "IA": 2153,
  "IAL": 17240,
  "IALES": 39098,
  "IAN": 37618,
  "IANA": 46440,
  "IANO": 47007,
  "IAS": 9442,
  "IB": 3849,
  "IBA": 35811,
  "IBILIDAD": 45666,
  "IBLE": 25178,
  "IBU": 34045,
  "IC": 1460,
  "ICA": 3844,
  "ICACION": 32197,
  "ICACIONES": 29241,
  "ICACIÃĵN": 20520,
  "ICADO": 14958,
  "ICAL": 32748,
  "ICANTE": 33604,
  "ICAR": 33398,
  "ICAS": 14566,
  "ICE": 24796,
  "ICEF": 29521,
  "ICES": 38164,
  "ICH": 34740,
  "ICI": 6619,
  "ICIA": 22188,
  "ICIDAD": 29531,
  "ICIO": 29525,
  "ICION": 32290,
  "ICIONES": 41270,
  "ICIÃĵN": 27404,
  "ICK": 46662,
  "ICO": 5732,
  "ICOS": 13148,
  "ICS": 48702,
  "ID": 2078,
  "IDA": 8237,
  "IDAD": 5621,
  "IDADES": 16939,
  "IDAS": 22517,
  "IDE": 23011,
  "IDO": 9386,
  "IDOS": 16458,
  "IE": 9150,
  "IEL": 50220,
  "IEN": 3840,
  "IENCIA": 25608,
  "IENDO": 32150,
  "IENTE": 18664,
  "IENTES": 28285,
  "IENTO": 9862,
  "IENTOS": 23293,
  "IER": 4863,
  "IERNO": 27841,
  "IERRA": 32409,
  "IERTO": 46493,
  "IES": 15491,
  "IF": 5535,
  "IFA": 16551,
  "IFE": 31440,
  "IFI": 43455,
  "IFICACIÃĵN": 41928,
  "IG": 4228,
  "IGA": 26194,
  "IGN": 45421,
  "IGO": 20553,
  "IGOS": 44612,
  "IH": 49989,
  "II": 1927,
  "III": 5497,
  "IIII": 41508,
  "IJ": 13662,
  "IJIJ": 20201,
  "IJIJIJIJ": 32067,
  "IK": 34249,
  "IKA": 44797,
  "IL": 1957,
  "ILA": 25581,
  "ILAR": 41129,
  "ILE": 35225,
  "ILER": 36184,
  "ILI": 23151,
  "ILIAR": 47035,
  "ILIDAD": 23822,
  "ILL": 11805,
  "ILLA": 9888,
  "ILLAS": 31617,
  "ILLO": 21774,
  "ILO": 29216,
  "IM": 3872,
  "IMA": 18650,
  "IME": 41311,
  "IMEN": 35099,
  "IMIENTO": 25225,
  "IMO": 22318,
  "IMON": 44817,
  "IMOS": 39839,
  "IMP": 30731,
  "IN": 1776,
  "INA": 9112,
  "INAL": 40886,
  "INAS": 31110,
  "INE": 12799,
  "INES": 42308,
  "ING": 12662,
  "INI": 39805,
  "INO": 13102,
  "INOS": 29539,
  "INS": 34169,
  "IO": 2955,
  "ION": 8321,
  "IONAL": 26619,
  "IONALES": 46432,
  "IONES": 21109,
  "IOR": 20834,
  "IOS": 6333,
  "IOSO": 50253,
  "IP": 5813,
  "IPO": 21650,
  "IR": 5584,
  "IRA": 47032,
  "IRO": 26269,
  "IS": 1669,
  "ISA": 16202,
  "ISIS": 33499,
  "ISIÃĵN": 34153,
  "ISMO": 13026,
  "ISS": 43440,
  "IST": 21654,
  "ISTA": 11380,
  "ISTAS": 17992,
  "ISTE": 21479,
  "ISTENCIA": 45028,
  "ISTER": 35516,
  "ISTERIO": 49336,
  "IT": 3246,
  "ITA": 10861,
  "ITADO": 49338,
  "ITAL": 19327,
  "ITAR": 29160,
  "ITAS": 32101,
  "ITB": 33333,
  "ITE": 26538,
  "ITER": 22949,
  "ITO": 16339,
  "ITOR": 18034,
  "ITORIAL": 43289,
  "ITOS": 20760,
  "ITTER": 46670,
  "ITUR": 39981,
  "IU": 17350,
  "IV": 6506,
  "IVA": 20353,
  "IVEL": 45161,
  "IVERS": 16413,
  "IVO": 40438,
  "IX": 20748,
  "IZ": 6115,
  "IZA": 13513,
  "IZACION": 37037,
  "IZACIÃĵN": 25029,
  "IZADO": 40763,
  "IZAR": 29046,
  "Ib": 40059,
  "Id": 31931,
  "Ideas": 49509,
  "Ig": 22451,
  "Igles": 25830,
  "Iglesias": 28572,
  "Igu": 29749,
  "Igual": 43501,
  "Il": 34384,
  "Ima": 37936,
  "Imp": 24484,
  "In": 3944,
  "Incl": 33309,
  "Ind": 42087,
  "Ines": 43458,
  "InesArrimadas": 45981,
  "Inf": 34956,
  "InformaciÃ³n": 36972,
  "Informe": 49404,
  "Ing": 38812,
  "Ins": 16248,
  "Institu": 27904,
  "Instituto": 32306,
  "Inter": 17965,
  "Internacional": 44981,
  "Internet": 44481,
  "Introdu": 47190,
  "Investi": 27403,
  "Investidura": 38134,
  "Ir": 17223,
  "Irun": 30227,
  "IruÃ±a": 39686,
  "Is": 16723,
  "It": 48603,
  "Italia": 29307,
  "Iz": 38051,
  "IÃĵ": 41171,
  "IÃĵN": 10864,
  "J": 95,
  "JA": 6994,
  "JAJA": 26842,
  "JAR": 26144,
  "JAS": 26597,
  "JC": 15333,
  "JD": 8158,
  "JE": 10188,
  "JER": 15784,
  "JES": 23995,
  "JI": 44155,
  "JM": 42307,
  "JO": 8379,
  "JOS": 22399,
  "JU": 38223,
  "JUE": 37029,
  "JUN": 46593,
  "Ja": 11968,
  "Jaca": 37145,
  "Javier": 31385,
  "JaÃ©n": 17866,
  "JaÃ©nJerez": 33145,
  "Jean": 47576,
  "Jerez": 21234,
  "Jes": 31944,
  "JesÃºs": 46478,
  "Jo": 20111,
  "John": 49652,
  "Jorge": 46915,
  "Jornada": 47988,
  "Jos": 16530,
  "Jose": 48421,
  "JosÃ©": 23723,
  "Ju": 23755,
  "Juan": 17691,
  "Juego": 25920,
  "Jul": 46624,
  "Jun": 33650,
  "Jus": 43231,
  "Juven": 44533,
  "Jx": 45198,
  "JÃ³dar": 32902,
  "K": 96,
  "KA": 17061,
  "KE": 27173,
  "KET": 45979,
  "KI": 19690,
  "KK": 35097,
  "KO": 29419,
  "KR": 48939,
  "KS": 33010,
  "KV": 44548,
  "KY": 40557,
  "Ka": 37340,
  "Ke": 44777,
  "Km": 42433,
  "L": 97,
  "LA": 3215,
  "LAM": 36125,
  "LAMA": 46242,
  "LAN": 9253,
  "LANO": 47411,
  "LAR": 35556,
  "LAS": 14993,
  "LC": 32778,
  "LE": 4151,
  "LES": 12493,
  "LET": 46554,
  "LEX": 37715,
  "LEZ": 42370,
  "LI": 43326,
  "LIA": 42155,
  "LINE": 35554,
  "LIO": 26463,
  "LL": 25197,
  "LM": 20773,
  "LO": 4435,
  "LOPD": 46455,
  "LOR": 40914,
  "LOS": 13999,
  "LP": 28041,
  "LS": 27500,
  "LTI": 18918,
  "LU": 27766,
  "LV": 48403,
  "La": 1473,
  "LaRioja": 37319,
  "Lan": 47951,
  "Laren": 17031,
  "Las": 5742,
  "Laudio": 38064,
  "LaudioLavianaLeÃ³nLinaresLlanesLlanos": 38387,
  "Lav": 29226,
  "Laviana": 37889,
  "LavianaLeÃ³nLinaresLlanesLlanos": 38382,
  "Le": 6514,
  "Lea": 42706,
  "Leer": 31009,
  "Leg": 31300,
  "Leon": 49783,
  "Les": 25096,
  "Lev": 37790,
  "Levante": 47371,
  "Ley": 22585,
  "LeÃ³n": 17120,
  "LeÃ³nLinares": 33151,
  "LeÃ³nLinaresLlanesLlanos": 38351,
  "Li": 37864,
  "Lib": 23015,
  "Liber": 36724,
  "Libertad": 49366,
  "Libro": 44458,
  "Life": 34978,
  "Liga": 12997,
  "Lin": 38900,
  "Linares": 30053,
  "Line": 42339,
  "Lizarra": 31968,
  "LizarraEstepa": 38347,
  "LizarraEstepaFerrolFigueres": 38416,
  "LizarraEstepaFerrolFigueresFrontera": 38436,
  "Llanes": 36525,
  "LlanesLlanos": 38293,
  "Llanos": 37435,
  "Lle": 17449,
  "Lleida": 24979,
  "LleidaLogroÃ±o": 33293,
  "Llev": 50149,
  "Lo": 5659,
  "Log": 22004,
  "LogroÃ±o": 25531,
  "Loja": 37573,
  "LojaLorca": 38317,
  "LojaLorcaLugoMadridMÃ¡lagaManresaMaÃ³": 38398,
  "Lorca": 33113,
  "Los": 4018,
  "Lu": 11587,
  "Lugo": 21648,
  "LugoMadrid": 31727,
  "LugoMadridMÃ¡laga": 31998,
  "LugoMadridMÃ¡lagaManresa": 33295,
  "LugoMadridMÃ¡lagaManresaMaÃ³": 33300,
  "Luis": 28675,
  "M": 98,
  "MA": 2050,
  "MAD": 37756,
  "MADRID": 38015,
  "MAN": 27005,
  "MAR": 24320,
  "MAS": 12807,
  "MB": 25863,
  "MC": 13455,
  "MD": 31029,
  "ME": 9408,
  "MEN": 34682,
  "MENTE": 24329,
  "MER": 48912,
  "MH": 28242,
  "MI": 8597,
  "MIN": 19740,
  "MINIS": 27667,
  "MIT": 39958,
  "ML": 22740,
  "MM": 21519,
  "MO": 6975,
  "MON": 43219,
  "MOS": 18753,
  "MP": 5514,
  "MPL": 42662,
  "MS": 8737,
  "MT": 19195,
  "MU": 27030,
  "MV": 15693,
  "MW": 31744,
  "MX": 47174,
  "MY": 47711,
  "Ma": 7302,
  "Mac": 46368,
  "Mad": 30657,
  "Madrid": 6587,
  "Mag": 41667,
  "Mah": 31519,
  "MahÃ³n": 32926,
  "MahÃ³nMarbella": 38349,
  "MahÃ³nMarbellaMedina": 38418,
  "Mail": 36059,
  "Mal": 25463,
  "Mallorca": 44871,
  "Man": 9812,
  "Manresa": 32188,
  "Manuel": 38690,
  "Mar": 7126,
  "Mara": 49356,
  "Marbella": 33829,
  "Mari": 36814,
  "Marlaska": 37975,
  "MarÃŃa": 33574,
  "Mas": 16325,
  "Master": 26483,
  "MaÃ³": 32996,
  "Mb": 48791,
  "Mc": 40831,
  "Me": 5645,
  "Med": 16305,
  "Media": 49823,
  "Medina": 30924,
  "Medio": 44008,
  "Mejor": 25177,
  "Mel": 24218,
  "Melilla": 31815,
  "MelillaMÃ©rida": 38311,
  "Men": 21846,
  "Menos": 49671,
  "Mer": 21095,
  "Mes": 45386,
  "Mi": 10663,
  "Mic": 49702,
  "Mientras": 35199,
  "Miguel": 28171,
  "Mil": 46931,
  "Min": 24525,
  "Mir": 21969,
  "Mira": 35479,
  "Miranda": 34428,
  "Mis": 27367,
  "Mo": 8849,
  "Mod": 30096,
  "MojÃ¡car": 38163,
  "Mon": 12195,
  "Monforte": 37160,
  "MonzÃ³n": 35474,
  "MonzÃ³nM": 38162,
  "MonzÃ³nMÃ³ra": 38296,
  "Mor": 19282,
  "Morella": 37807,
  "Mos": 48467,
  "Motilla": 33083,
  "Motril": 31402,
  "Mu": 10813,
  "Muchas": 25916,
  "Muchos": 41945,
  "Mujer": 23190,
  "Mujeres": 31673,
  "Mul": 48850,
  "Mula": 37159,
  "MulaMurcia": 38283,
  "Mun": 27664,
  "Mundial": 37195,
  "Mundo": 48433,
  "Murcia": 16451,
  "Mus": 21611,
  "Museo": 33259,
  "Muy": 37718,
  "My": 27875,
  "MÃ¡laga": 13637,
  "MÃ¡s": 13502,
  "MÃ©rida": 30023,
  "MÃ©xico": 33285,
  "MÃ³stoles": 31903,
  "MÃ³stolesMotilla": 33166,
  "MÃºsica": 39821,
  "N": 99,
  "NA": 7323,
  "NAS": 37944,
  "NC": 24993,
  "ND": 42656,
  "NE": 11641,
  "NES": 47164,
  "NET": 24110,
  "NG": 13239,
  "NI": 11525,
  "NL": 26321,
  "NN": 38473,
  "NO": 9633,
  "NOS": 24120,
  "NP": 36817,
  "NS": 22279,
  "NT": 43091,
  "NU": 27566,
  "NUR": 35375,
  "NV": 6527,
  "NY": 45245,
  "NYC": 44466,
  "NYCFC": 45765,
  "Na": 14766,
  "Nacional": 43817,
  "Nada": 41735,
  "Nadie": 27719,
  "Nar": 45337,
  "Nav": 9362,
  "Naval": 35779,
  "Navalmoral": 37758,
  "Navarra": 17464,
  "NavegaciÃ³n": 19594,
  "Navia": 37293,
  "Navidad": 49976,
  "Ne": 18305,
  "Neces": 22204,
  "Necesitamos": 42107,
  "Net": 32852,
  "New": 35552,
  "News": 48234,
  "Ni": 19743,
  "Nin": 37211,
  "No": 2288,
  "Noche": 39672,
  "Nombre": 38932,
  "Nos": 9783,
  "Nosotros": 21888,
  "Noticias": 32324,
  "Nuestra": 25272,
  "Nuestro": 24927,
  "Nuestros": 43344,
  "Nueva": 28618,
  "Nuevo": 36312,
  "Nunca": 21914,
  "O": 100,
  "OB": 16274,
  "OC": 6694,
  "OD": 3277,
  "OE": 9340,
  "OG": 9332,
  "OGRA": 44795,
  "OI": 43494,
  "OJD": 48535,
  "OK": 28199,
  "OL": 2037,
  "OLA": 10572,
  "OLES": 30674,
  "OLO": 31740,
  "OLOG": 14027,
  "OLOGIA": 24428,
  "OLOGÃįA": 32382,
  "OLU": 17349,
  "OLÃĵG": 44987,
  "OM": 2253,
  "OMO": 39025,
  "OMS": 38531,
  "ON": 1074,
  "ONA": 7682,
  "ONAL": 50036,
  "ONAS": 45321,
  "ONE": 31731,
  "ONES": 17891,
  "ONO": 27077,
  "ONS": 48991,
  "ONSO": 37906,
  "ONZ": 27104,
  "OO": 7202,
  "OOK": 40030,
  "OOOO": 18317,
  "OOOOOOOO": 36210,
  "OP": 25265,
  "OR": 1182,
  "ORA": 8046,
  "ORACIÃĵN": 40559,
  "ORD": 27810,
  "ORES": 9244,
  "ORIA": 24605,
  "ORM": 17343,
  "ORMA": 10569,
  "ORMAS": 44259,
  "ORO": 39762,
  "ORTE": 19777,
  "OS": 881,
  "OSA": 24650,
  "OSO": 26074,
  "OT": 26055,
  "OY": 13629,
  "Ob": 23437,
  "Objetivo": 49891,
  "Oc": 33994,
  "Of": 47229,
  "Off": 45832,
  "Oh": 34482,
  "OjalÃ¡": 46902,
  "Ol": 30542,
  "Olot": 37777,
  "Olv": 40378,
  "On": 17039,
  "One": 47378,
  "Ontinyent": 37590,
  "OntinyentOrihuelaOurenseOviedoPalamÃ³s": 38376,
  "Op": 40832,
  "Open": 40523,
  "OperaciÃ³n": 28898,
  "Or": 12077,
  "Organ": 40573,
  "Orgullo": 45696,
  "Ori": 30532,
  "Orihuela": 33359,
  "OrihuelaOurenseOviedoPalamÃ³s": 38364,
  "Os": 17954,
  "Osas": 39967,
  "Osasuna": 45150,
  "Otra": 40167,
  "Ourense": 24622,
  "OurenseOviedo": 33147,
  "OurenseOviedoPalamÃ³s": 38350,
  "Oviedo": 25964,
  "P": 101,
  "PA": 2951,
  "PAC": 26854,
  "PACIÃĵN": 49314,
  "PAL": 23913,
  "PAR": 16214,
  "PARA": 41949,
  "PAS": 27302,
  "PAÃĳ": 33512,
  "PAÃĳA": 30696,
  "PC": 18091,
  "PD": 10471,
  "PDF": 40599,
  "PE": 4809,
  "PEC": 27871,
  "PEG": 49083,
  "PEL": 43320,
  "PEND": 30980,
  "PER": 11032,
  "PEZ": 27272,
  "PF": 11402,
  "PFRE": 49102,
  "PG": 25925,
  "PGE": 45912,
  "PH": 22656,
  "PI": 11005,
  "PL": 13158,
  "PM": 21434,
  "PN": 34342,
  "PNV": 31397,
  "PO": 9639,
  "POL": 28337,
  "PON": 17463,
  "POR": 9920,
  "PORT": 31566,
  "PORTE": 43429,
  "POS": 20305,
  "PP": 6804,
  "PPo": 31466,
  "PPopular": 31689,
  "PR": 13645,
  "PRE": 28615,
  "PRO": 21689,
  "PS": 8040,
  "PSOE": 8571,
  "PT": 28436,
  "PU": 18008,
  "PUES": 23800,
  "PUESTA": 40651,
  "PV": 14851,
  "Pa": 8517,
  "Pablo": 21854,
  "Pac": 48627,
  "Pad": 40405,
  "Pag": 48575,
  "Page": 22366,
  "Pal": 8922,
  "Pala": 46386,
  "PalamÃ³s": 38116,
  "Palencia": 24190,
  "PalenciaPalma": 33119,
  "Palma": 19835,
  "Palmas": 30631,
  "Pamplona": 36683,
  "Pan": 28647,
  "Par": 10687,
  "Para": 8676,
  "Parece": 39796,
  "Parla": 31521,
  "Parti": 41565,
  "Partido": 38755,
  "Pas": 20973,
  "Patr": 39504,
  "PaÃŃs": 44063,
  "Pe": 16562,
  "Ped": 15579,
  "Pedro": 18228,
  "PedroÃ±eras": 33101,
  "Pens": 35483,
  "Per": 9164,
  "Permites": 19543,
  "Pero": 10831,
  "Person": 39273,
  "PeÃ±": 35430,
  "PeÃ±arroya": 37413,
  "Ph": 29185,
  "Phone": 47759,
  "Pi": 27207,
  "Pien": 47442,
  "Pin": 29810,
  "Pl": 24234,
  "Pla": 15574,
  "Plan": 18989,
  "Plasencia": 30604,
  "PlasenciaPonferradaPontevedra": 33165,
  "PlasenciaPonferradaPontevedraPuertollanoPuigcerdÃł": 38357,
  "Play": 44396,
  "Plaza": 33304,
  "Pleno": 41618,
  "Plus": 42967,
  "Po": 15244,
  "Pod": 9447,
  "Podemos": 13225,
  "PodrÃŃa": 45275,
  "Pol": 18682,
  "Pola": 38556,
  "PolÃŃtica": 44534,
  "Pon": 20472,
  "Ponferrada": 32048,
  "PonferradaPontevedra": 33149,
  "Ponte": 19950,
  "Pontevedra": 21201,
  "Por": 3920,
  "Porque": 28009,
  "Port": 43279,
  "Portu": 35895,
  "Portugal": 37554,
  "Pos": 23643,
  "Post": 41339,
  "Pr": 15065,
  "Pre": 11327,
  "Premio": 32119,
  "Premios": 40522,
  "Pres": 7314,
  "PresentaciÃ³n": 34359,
  "Presidente": 34419,
  "Press": 9777,
  "Prim": 21040,
  "Primera": 50170,
  "Pro": 8012,
  "Profes": 43382,
  "Programa": 35165,
  "Promo": 45288,
  "Proyecto": 37373,
  "Pu": 14213,
  "Publ": 27520,
  "Pue": 11612,
  "Pueblonuevo": 35080,
  "PueblonuevoPlasenciaPonferradaPontevedraPuertollanoPuigcerdÃł": 38367,
  "PueblonuevoPlasenciaPonferradaPontevedraPuertollanoPuigcerdÃłReinosaReusRibadaviaRondaRoquetas": 38424,
  "Pued": 21964,
  "Puede": 22073,
  "Puedes": 37693,
  "Puedo": 41983,
  "Puerto": 26820,
  "Puertollano": 36907,
  "PuertollanoPuigcerdÃł": 38316,
  "Pues": 23394,
  "Puig": 28478,
  "PuigcerdÃł": 38191,
  "Pun": 44729,
  "Q": 102,
  "QL": 22916,
  "QM": 43349,
  "QU": 3855,
  "QUE": 8619,
  "QUES": 34599,
  "QUEZ": 46680,
  "QUI": 34850,
  "QUIER": 7557,
  "QUIN": 48786,
  "QUIS": 45992,
  "QUÃī": 41335,
  "Qu": 1925,
  "Que": 6535,
  "Quer": 13855,
  "Queremos": 19421,
  "Quien": 30926,
  "Quiere": 38925,
  "Quieres": 5722,
  "Quiero": 22500,
  "Quiz": 41777,
  "QuiÃ©n": 9506,
  "QuiÃ©nes": 36089,
  "QuÃ©": 3069,
  "QuÃ©Barato": 26557,
  "R": 103,
  "RA": 1883,
  "RAC": 28648,
  "RACIÃĵN": 47979,
  "RAM": 39437,
  "RAN": 6201,
  "RAR": 32348,
  "RAS": 22446,
  "RB": 35548,
  "RC": 29837,
  "RD": 36718,
  "RE": 1810,
  "REA": 32227,
  "REC": 11210,
  "RECE": 40210,
  "RECH": 6950,
  "RED": 34425,
  "REG": 47918,
  "REND": 33406,
  "RES": 6353,
  "REZ": 22225,
  "RG": 44650,
  "RI": 20043,
  "RIS": 45567,
  "RM": 27548,
  "RO": 2155,
  "ROB": 27147,
  "ROM": 37074,
  "ROS": 19173,
  "RR": 33505,
  "RS": 31150,
  "RSS": 23549,
  "RT": 31100,
  "RW": 33388,
  "Ra": 16349,
  "Radio": 25686,
  "Rafa": 34180,
  "Rafael": 48074,
  "Rajoy": 25528,
  "Rayo": 48494,
  "Re": 5486,
  "Real": 12585,
  "Rec": 16627,
  "Reci": 43333,
  "Recuer": 35543,
  "Red": 20707,
  "Ref": 3174,
  "Reg": 14075,
  "RegÃŃstrate": 23080,
  "Reino": 32476,
  "Reinosa": 37276,
  "ReinosaReusRibadavia": 38295,
  "ReinosaReusRibadaviaRondaRoquetas": 38390,
  "Ren": 49254,
  "Rep": 29638,
  "RepÃºblica": 46245,
  "Res": 16261,
  "Reus": 30934,
  "ReusRibadavia": 38292,
  "Rev": 27206,
  "Rey": 43615,
  "Rib": 32551,
  "Ribadavia": 37858,
  "Rio": 21929,
  "Rioja": 25057,
  "Rivera": 20343,
  "Ro": 14741,
  "Rock": 43715,
  "Rod": 32025,
  "Rom": 33267,
  "Roma": 49433,
  "Ronda": 30120,
  "RondaRoquetas": 38310,
  "Roquetas": 37120,
  "Ros": 37589,
  "Ru": 33936,
  "Rub": 37284,
  "Rusia": 49536,
  "S": 104,
  "SA": 5955,
  "SAL": 45419,
  "SAN": 47170,
  "SC": 20330,
  "SD": 21940,
  "SE": 6508,
  "SER": 23598,
  "SH": 31533,
  "SI": 14532,
  "SIG": 49724,
  "SITE": 44064,
  "SL": 17726,
  "SM": 31936,
  "SO": 1326,
  "SOE": 1522,
  "SOL": 36504,
  "SOS": 23199,
  "SP": 36093,
  "SS": 4840,
  "SSSS": 46330,
  "ST": 39026,
  "SU": 36547,
  "SV": 49929,
  "Sa": 18589,
  "Sab": 10683,
  "Sabemos": 44815,
  "Sabes": 26982,
  "SabiÃ±Ã¡nigo": 37922,
  "SabÃŃas": 32582,
  "Sal": 8980,
  "Sala": 43502,
  "Salamanca": 21830,
  "SalamancaSan": 38274,
  "Salud": 35330,
  "Saludos": 39973,
  "Salv": 47253,
  "San": 5582,
  "SanlÃºcar": 36783,
  "Santa": 19640,
  "Santander": 22482,
  "SantanderSantiago": 33142,
  "Santiago": 23333,
  "Santo": 31007,
  "SantoÃ±a": 37241,
  "SariÃ±ena": 38054,
  "SariÃ±enaSegoviaSepÃºlveda": 38386,
  "Se": 3692,
  "Sec": 46365,
  "Seg": 26671,
  "Segovia": 22598,
  "SegoviaSepÃºlveda": 38307,
  "Segu": 21000,
  "Segun": 47685,
  "Segur": 48824,
  "Seguro": 38514,
  "SegÃºn": 44324,
  "Sem": 28931,
  "Semana": 47028,
  "Sen": 46961,
  "Senado": 30080,
  "Senadoesp": 41157,
  "Sep": 27989,
  "SepÃºlveda": 38063,
  "Ser": 19956,
  "Serv": 23076,
  "Servicio": 44927,
  "Servicios": 41321,
  "SerÃ¡": 25593,
  "SerÃŃa": 38225,
  "Sevilla": 11467,
  "SevillaSolson": 38328,
  "SevillaSolsonaSoriaSortTafallaTalavera": 38407,
  "Sexta": 40045,
  "SeÃ±or": 46668,
  "Sh": 26726,
  "Si": 5044,
  "Siempre": 19224,
  "Sigue": 46168,
  "Sil": 36264,
  "Sim": 47093,
  "Sin": 13880,
  "So": 17652,
  "Sobrarbe": 37604,
  "SobrarbeAlagÃ³n": 38378,
  "SobrarbeAlagÃ³nAlbaceteAlcalÃ¡": 38429,
  "Sobre": 35028,
  "Soci": 16431,
  "Social": 34187,
  "Sociedad": 26421,
  "Sol": 17009,
  "Solo": 25951,
  "Solson": 38185,
  "Somos": 17293,
  "Son": 14881,
  "Soria": 35123,
  "Sort": 38023,
  "SortTafallaTalavera": 38383,
  "Soy": 17182,
  "Sp": 47751,
  "Spain": 31819,
  "Sporting": 44645,
  "Star": 22983,
  "Station": 20450,
  "Stop": 42746,
  "Su": 9747,
  "Sub": 37725,
  "Sue": 49298,
  "Suiza": 44181,
  "Super": 21407,
  "Supervivientes": 35575,
  "Sur": 34148,
  "Sus": 23140,
  "SÃ¡lvame": 35964,
  "SÃ¡nchez": 31791,
  "SÃ©": 37991,
  "SÃ³lo": 28901,
  "SÃŃ": 13816,
  "T": 105,
  "TA": 1597,
  "TAC": 20137,
  "TACION": 38559,
  "TACIONES": 46786,
  "TACIÃĵN": 23708,
  "TADA": 50010,
  "TADO": 23142,
  "TAL": 11553,
  "TAM": 11602,
  "TAMENTE": 45582,
  "TAMENTO": 41266,
  "TAMIENTO": 23085,
  "TAMOS": 37544,
  "TAN": 8921,
  "TANCIA": 47714,
  "TANTE": 27800,
  "TAR": 10539,
  "TARIA": 48456,
  "TAS": 7433,
  "TB": 10990,
  "TBOL": 33563,
  "TC": 8749,
  "TD": 43902,
  "TDT": 38843,
  "TE": 1832,
  "TEA": 36982,
  "TEC": 15814,
  "TECA": 38728,
  "TED": 34865,
  "TEIRO": 35203,
  "TEL": 13153,
  "TEM": 36419,
  "TEMP": 49470,
  "TEN": 14136,
  "TER": 4620,
  "TERA": 36094,
  "TERIOR": 41506,
  "TERO": 28332,
  "TES": 9898,
  "TEX": 44037,
  "TF": 45047,
  "TH": 32430,
  "TI": 2504,
  "TIA": 48682,
  "TIC": 9508,
  "TICA": 10901,
  "TICAS": 21517,
  "TICIA": 45529,
  "TICO": 16052,
  "TICOS": 24088,
  "TIF": 24843,
  "TIL": 27884,
  "TIM": 21486,
  "TIMA": 49411,
  "TIN": 15756,
  "TINA": 38909,
  "TIO": 34192,
  "TION": 27955,
  "TIP": 35714,
  "TIR": 25326,
  "TIS": 14597,
  "TITU": 21939,
  "TIV": 11251,
  "TIVA": 17019,
  "TIVAS": 33526,
  "TIVO": 16199,
  "TIVOS": 23597,
  "TIZ": 46633,
  "TJ": 25347,
  "TL": 40219,
  "TM": 6526,
  "TML": 9234,
  "TO": 2392,
  "TON": 15270,
  "TOOL": 43658,
  "TOP": 46999,
  "TOR": 4683,
  "TORES": 26448,
  "TORIA": 9608,
  "TOS": 6179,
  "TP": 26901,
  "TR": 3760,
  "TRA": 6725,
  "TRAL": 39245,
  "TRAN": 48375,
  "TRAS": 19677,
  "TRATE": 24518,
  "TRE": 11721,
  "TRES": 43236,
  "TRIBU": 45525,
  "TRO": 10903,
  "TROS": 12335,
  "TRUC": 20913,
  "TS": 9153,
  "TSJC": 46286,
  "TT": 16437,
  "TU": 4941,
  "TUAL": 43754,
  "TUD": 15684,
  "TUR": 13599,
  "TURA": 13664,
  "TURAS": 40458,
  "TURIAS": 28449,
  "TURO": 44353,
  "TV": 8950,
  "TW": 44505,
  "TY": 46065,
  "Ta": 26075,
  "Taf": 31786,
  "Tafalla": 32154,
  "TafallaTalavera": 33167,
  "Tal": 20206,
  "Talavera": 31637,
  "Taller": 44760,
  "Tam": 21675,
  "TambiÃ©n": 25898,
  "Tan": 45169,
  "Tar": 47349,
  "TarancÃ³n": 32843,
  "Tarragona": 19736,
  "Te": 7589,
  "Tea": 34820,
  "Teatro": 40271,
  "Tec": 33728,
  "Tech": 46275,
  "Tecn": 47839,
  "Tel": 45861,
  "Tele": 29503,
  "Ten": 9291,
  "Tend": 34594,
  "Tenemos": 14256,
  "Tener": 27593,
  "Tenerife": 31987,
  "Tengo": 22249,
  "Ter": 14386,
  "Teruel": 24778,
  "TeruelToledo": 36299,
  "Tex": 34235,
  "Th": 31183,
  "The": 8371,
  "Ti": 21591,
  "Tiempo": 40380,
  "Tiene": 22590,
  "Tienen": 44819,
  "Tienes": 19418,
  "Tierra": 41615,
  "Time": 47375,
  "Title": 50055,
  "Tj": 20941,
  "To": 6987,
  "Toda": 23858,
  "Todas": 37025,
  "TodavÃŃa": 31957,
  "Todo": 14271,
  "Todos": 14687,
  "Toledo": 19166,
  "Tom": 35520,
  "Top": 46104,
  "Tor": 12794,
  "Tordesillas": 37646,
  "TordesillasTorrelavegaTortosaTudelaTui": 38380,
  "Torre": 23117,
  "Torrelavega": 30015,
  "TorrelavegaTortosa": 33164,
  "TorrelavegaTortosaTudela": 33173,
  "TorrelavegaTortosaTudelaTui": 38360,
  "Tortosa": 32729,
  "Tr": 31470,
  "Tra": 15508,
  "Trabaj": 42555,
  "Trans": 26028,
  "Tras": 27915,
  "Tres": 38462,
  "Trib": 46040,
  "Tu": 12000,
  "Tube": 12852,
  "Tudela": 29231,
  "Tui": 37343,
  "Tur": 23832,
  "Turismo": 41239,
  "Twitter": 35383,
  "Tx": 48928,
  "TÃº": 24877,
  "TÃįN": 33134,
  "U": 106,
  "UA": 16593,
  "UACIÃĵN": 46339,
  "UAL": 20855,
  "UALES": 46298,
  "UB": 15104,
  "UC": 7116,
  "UCÃįA": 46759,
  "UD": 7087,
  "UDA": 36307,
  "UDAD": 19082,
  "UE": 1887,
  "UEL": 11503,
  "UELA": 23570,
  "UER": 23732,
  "UERDO": 41361,
  "UES": 7960,
  "UESTO": 47670,
  "UEZ": 44286,
  "UG": 43583,
  "UGT": 33727,
  "UK": 40870,
  "UL": 5113,
  "ULA": 24012,
  "ULAR": 23778,
  "ULARES": 47339,
  "ULL": 48473,
  "ULO": 31776,
  "ULOS": 38042,
  "ULT": 32873,
  "UM": 4618,
  "UMA": 49712,
  "UN": 2694,
  "UNA": 16960,
  "UNCA": 35849,
  "UND": 33867,
  "UNED": 49188,
  "UNO": 43288,
  "UP": 7338,
  "UPV": 41116,
  "UR": 2859,
  "URA": 13646,
  "URAL": 23990,
  "URANTE": 34052,
  "URAS": 44058,
  "URL": 10025,
  "URO": 10629,
  "UROS": 20049,
  "US": 3742,
  "USA": 33732,
  "USTR": 23806,
  "UT": 19929,
  "UTOS": 46092,
  "UU": 4402,
  "UV": 46705,
  "UX": 47099,
  "UZ": 20254,
  "Ub": 30778,
  "Ubrique": 37728,
  "Ul": 46831,
  "Un": 4605,
  "Una": 9403,
  "Unidad": 46205,
  "Univers": 38448,
  "Universidad": 15794,
  "Uno": 28657,
  "Up": 41413,
  "Ur": 16297,
  "Urdiales": 31827,
  "UrdialesCervera": 38344,
  "UrdialesCerveraCeutaChantadaCiudad": 38413,
  "Us": 21789,
  "Usted": 33805,
  "Utrillas": 38083,
  "UtrillasValdepeÃ±asValenciaValladolid": 38388,
  "UÃĳA": 29424,
  "V": 107,
  "VA": 3530,
  "VAL": 22132,
  "VAR": 14170,
  "VAS": 19066,
  "VD": 10669,
  "VE": 4652,
  "VEL": 27553,
  "VEN": 12329,
  "VENES": 49742,
  "VER": 16408,
  "VES": 24748,
  "VI": 4333,
  "VIA": 27918,
  "VID": 31603,
  "VIER": 31834,
  "VIL": 28823,
  "VILLA": 27600,
  "VIN": 20027,
  "VIR": 41292,
  "VIS": 25542,
  "VISTA": 33097,
  "VM": 34190,
  "VO": 7754,
  "VOCA": 32281,
  "VOR": 35053,
  "VOS": 33461,
  "VOX": 46724,
  "VP": 30232,
  "VR": 45481,
  "VS": 39220,
  "Va": 22242,
  "Val": 8544,
  "Valde": 34980,
  "ValdepeÃ±as": 37020,
  "ValdepeÃ±asValenciaValladolid": 38294,
  "Valencia": 12497,
  "ValenciaValladolid": 31941,
  "Valladolid": 19345,
  "Valle": 42910,
  "Vamos": 15014,
  "Van": 30809,
  "Vanguardia": 45512,
  "Vas": 43446,
  "Vaya": 40510,
  "Ve": 36507,
  "Ven": 19344,
  "Vend": 33781,
  "Vendrell": 38012,
  "Venezuela": 44415,
  "Ver": 13002,
  "Verano": 46483,
  "Ves": 26948,
  "Vi": 26843,
  "Via": 32576,
  "Vic": 22741,
  "Vida": 46199,
  "Vielha": 38221,
  "Vigo": 26058,
  "VigoVilafranca": 38337,
  "Vil": 21461,
  "Vila": 22918,
  "Vilafranca": 37905,
  "VilagarcÃŃa": 37628,
  "Vilalba": 37431,
  "Vill": 31013,
  "Villa": 31700,
  "Villamar": 37956,
  "VillamartÃŃn": 38111,
  "VillamartÃŃnVillanueva": 38389,
  "Villan": 21132,
  "Villanueva": 21499,
  "Villar": 38263,
  "Villarreal": 47201,
  "Villena": 37307,
  "Violencia": 45472,
  "Vir": 35007,
  "Vis": 28729,
  "Vitoria": 26052,
  "Viv": 28969,
  "Viva": 27194,
  "Vive": 25885,
  "Viveiro": 37490,
  "Vo": 24553,
  "Vol": 40516,
  "Volver": 42261,
  "Vota": 31991,
  "Vox": 33231,
  "Voy": 37648,
  "W": 108,
  "WA": 42106,
  "WEB": 40813,
  "WN": 47737,
  "WS": 26442,
  "WW": 43916,
  "Wa": 47943,
  "We": 41058,
  "Web": 17680,
  "WebTV": 31752,
  "Wh": 35049,
  "Without": 31528,
  "WithoutBreakingWords": 31774,
  "Words": 28247,
  "Work": 45598,
  "World": 41694,
  "X": 109,
  "XA": 28190,
  "XG": 43924,
  "XI": 43697,
  "XT": 45631,
  "XV": 32998,
  "XX": 16692,
  "Xinzo": 38158,
  "XÃłtiva": 37767,
  "XÃłtivaXinzo": 38381,
  "Y": 110,
  "YA": 16369,
  "YC": 26777,
  "YD": 26525,
  "YE": 34521,
  "YEC": 23086,
  "YL": 34121,
  "YM": 21685,
  "YME": 30928,
  "YN": 35002,
  "YO": 18232,
  "YR": 49389,
  "YS": 28496,
  "YT": 35711,
  "Ya": 10814,
  "Year": 43103,
  "Yecla": 37334,
  "Yo": 7769,
  "You": 37499,
  "Z": 111,
  "ZA": 8852,
  "ZAR": 37955,
  "ZAS": 24803,
  "ZE": 35854,
  "ZO": 15267,
  "ZOS": 35306,
  "ZZ": 40318,
  "Za": 48086,
  "Zafra": 35561,
  "ZafraZamoraZaragoza": 38315,
  "Zamora": 22337,
  "ZamoraZaragoza": 31924,
  "Zapa": 49482,
  "Zaragoza": 18625,
  "[": 112,
  "[...]": 20155,
  "[UNUSED-0]": 4,
  "[UNUSED-10]": 14,
  "[UNUSED-11]": 15,
  "[UNUSED-12]": 16,
  "[UNUSED-13]": 17,
  "[UNUSED-14]": 18,
  "[UNUSED-15]": 19,
  "[UNUSED-16]": 20,
  "[UNUSED-17]": 21,
  "[UNUSED-18]": 22,
  "[UNUSED-19]": 23,
  "[UNUSED-1]": 5,
  "[UNUSED-20]": 24,
  "[UNUSED-21]": 25,
  "[UNUSED-22]": 26,
  "[UNUSED-23]": 27,
  "[UNUSED-24]": 28,
  "[UNUSED-25]": 29,
  "[UNUSED-26]": 30,
  "[UNUSED-27]": 31,
  "[UNUSED-28]": 32,
  "[UNUSED-29]": 33,
  "[UNUSED-2]": 6,
  "[UNUSED-30]": 34,
  "[UNUSED-31]": 35,
  "[UNUSED-32]": 36,
  "[UNUSED-33]": 37,
  "[UNUSED-34]": 38,
  "[UNUSED-35]": 39,
  "[UNUSED-36]": 40,
  "[UNUSED-37]": 41,
  "[UNUSED-38]": 42,
  "[UNUSED-39]": 43,
  "[UNUSED-3]": 7,
  "[UNUSED-40]": 44,
  "[UNUSED-41]": 45,
  "[UNUSED-42]": 46,
  "[UNUSED-43]": 47,
  "[UNUSED-44]": 48,
  "[UNUSED-45]": 49,
  "[UNUSED-46]": 50,
  "[UNUSED-47]": 51,
  "[UNUSED-48]": 52,
  "[UNUSED-49]": 53,
  "[UNUSED-4]": 8,
  "[UNUSED-5]": 9,
  "[UNUSED-6]": 10,
  "[UNUSED-7]": 11,
  "[UNUSED-8]": 12,
  "[UNUSED-9]": 13,
  "\\": 113,
  "\\\"": 32740,
  "\\\",": 48686,
  "\\\".": 47224,
  "\\,": 21165,
  "\\/": 17550,
  "]": 114,
  "],": 8536,
  "].": 10452,
  "]...": 47902,
  "]:": 43489,
  "]>": 22854,
  "][": 27985,
  "^": 115,
  "^^": 49925,
  "_": 116,
  "__": 2890,
  "____": 5140,
  "________": 8666,
  "________________": 15185,
  "________________________________": 29962,
  "`": 117,
  "a": 118,
  "aS": 11044,
  "aSoria": 38304,
  "aSoriaSortTafallaTalavera": 38392,
  "aa": 5146,
  "aaa": 29467,
  "aaaa": 12074,
  "aaaaaaaa": 29451,
  "aacute": 34709,
  "ab": 405,
  "aba": 832,
  "abaj": 700,
  "abajo": 36859,
  "abal": 9980,
  "aballo": 41533,
  "abamos": 46522,
  "aban": 1554,
  "aband": 47429,
  "abank": 31812,
  "abar": 13658,
  "abas": 10404,
  "abat": 37163,
  "abc": 23067,
  "abci": 47669,
  "abe": 7766,
  "abel": 4811,
  "abell": 9664,
  "abellÃ³n": 11014,
  "aber": 32809,
  "abetes": 14449,
  "abeth": 28232,
  "abezas": 38583,
  "abi": 30051,
  "abia": 40518,
  "abierta": 49549,
  "abierto": 47607,
  "abil": 14288,
  "abilidad": 2195,
  "abilidades": 19711,
  "ablanca": 31057,
  "able": 923,
  "ablemente": 4861,
  "ables": 1633,
  "ablo": 2528,
  "ablos": 37304,
  "abo": 11886,
  "abor": 1342,
  "abora": 5231,
  "aboraciÃ³n": 40866,
  "aboral": 32860,
  "abos": 37135,
  "abr": 2479,
  "abra": 10652,
  "abrada": 15974,
  "abras": 17470,
  "abria": 34290,
  "abril": 46403,
  "abrir": 29165,
  "abro": 36045,
  "abrÃŃa": 26960,
  "abs": 42679,
  "absolu": 28317,
  "absolutamente": 36644,
  "abuena": 9230,
  "abul": 13798,
  "abulario": 27019,
  "aby": 36739,
  "abÃ³n": 20499,
  "ac": 719,
  "aca": 20471,
  "acal": 48256,
  "acalles": 32616,
  "acas": 16364,
  "accion": 22406,
  "acciones": 14025,
  "acciÃ³n": 3239,
  "ace": 36735,
  "acen": 15764,
  "acer": 33037,
  "ach": 13940,
  "aching": 24091,
  "aci": 18766,
  "acia": 17435,
  "acin": 13476,
  "acion": 6498,
  "aciones": 1016,
  "aciÃ²n": 29432,
  "aciÃ³n": 397,
  "ack": 5525,
  "aco": 14351,
  "acob": 48349,
  "acom": 42451,
  "acor": 39067,
  "acos": 24083,
  "actamente": 48673,
  "activa": 17135,
  "actividad": 32249,
  "actividades": 46524,
  "activo": 29507,
  "activos": 38280,
  "acto": 31255,
  "actor": 28401,
  "actual": 45181,
  "actualidad": 23774,
  "actualmente": 47407,
  "acu": 8211,
  "acuerdo": 24005,
  "acute": 28323,
  "acÃ³n": 18107,
  "acÃŃa": 42079,
  "acÃŃn": 42008,
  "ad": 328,
  "ada": 429,
  "adada": 32971,
  "adado": 35763,
  "adafi": 36462,
  "adahonda": 18706,
  "adajo": 6855,
  "adajoz": 6872,
  "adal": 3954,
  "adalajara": 21351,
  "adalona": 24125,
  "adamente": 3652,
  "adap": 35924,
  "adar": 13491,
  "adas": 580,
  "adavia": 31871,
  "add": 24690,
  "addEntry": 30818,
  "ade": 4357,
  "adear": 38618,
  "adec": 43097,
  "adel": 17171,
  "adell": 14052,
  "adem": 41690,
  "ademÃ¡s": 30961,
  "aden": 28111,
  "adeo": 27494,
  "ader": 6767,
  "adera": 11898,
  "aderas": 19128,
  "adern": 22384,
  "aderna": 24229,
  "adernacin": 26340,
  "adero": 7020,
  "aderos": 14491,
  "aderÃŃa": 16985,
  "aderÃŃas": 36439,
  "ades": 13689,
  "adesella": 47545,
  "adez": 32357,
  "adi": 1781,
  "adia": 20696,
  "adido": 46192,
  "adie": 2372,
  "adilla": 10445,
  "adillas": 27440,
  "adillo": 20917,
  "adillos": 36259,
  "adio": 2503,
  "adir": 13545,
  "adis": 45988,
  "adita": 30187,
  "aditas": 49847,
  "adito": 39591,
  "adix": 31323,
  "adiza": 48277,
  "adizo": 41317,
  "adiÃ³": 22483,
  "adiÃ³s": 28718,
  "adme": 46379,
  "administra": 37189,
  "administrativo": 29958,
  "ado": 368,
  "adona": 35376,
  "ador": 525,
  "adora": 1688,
  "adoras": 2617,
  "adores": 834,
  "ados": 482,
  "adr": 810,
  "adra": 10605,
  "adre": 22851,
  "adrid": 898,
  "adro": 23544,
  "adrÃ³n": 20935,
  "ads": 24562,
  "adu": 9644,
  "adur": 30911,
  "adura": 9204,
  "aduras": 15394,
  "ady": 13172,
  "adÃ¡": 11169,
  "adÃ¡n": 47001,
  "adÃŃ": 42620,
  "adÃŃa": 31219,
  "adÃŃsima": 47135,
  "adÃŃsimo": 40395,
  "af": 4754,
  "afas": 11861,
  "aflex": 31699,
  "afr": 41426,
  "afra": 23993,
  "ag": 5396,
  "aga": 20787,
  "agar": 38648,
  "agarzon": 48522,
  "agenda": 49500,
  "ager": 12557,
  "ago": 12226,
  "agogÃŃa": 40799,
  "agro": 17319,
  "agu": 17292,
  "agua": 37880,
  "agudo": 22902,
  "ah": 22149,
  "ahora": 14992,
  "ahorapodemos": 40615,
  "ai": 39376,
  "ain": 25573,
  "aj": 486,
  "aja": 2459,
  "ajaj": 7317,
  "ajaja": 11245,
  "ajajaja": 35174,
  "ajajajaj": 44754,
  "ajal": 17462,
  "ajara": 7322,
  "ajas": 5909,
  "aje": 1219,
  "ajea": 32978,
  "ajes": 2002,
  "ajestad": 22948,
  "ajj": 48697,
  "ajo": 2149,
  "ajos": 36853,
  "ajoy": 2603,
  "ajus": 35317,
  "ajuste": 41081,
  "ak": 15262,
  "al": 330,
  "ala": 1059,
  "alaga": 23287,
  "alan": 24350,
  "alao": 21872,
  "alar": 14188,
  "alas": 29669,
  "alba": 13670,
  "alcaba": 13574,
  "alcalde": 36397,
  "ald": 3684,
  "alda": 23817,
  "aldad": 5251,
  "alde": 13477,
  "aldea": 33756,
  "aldera": 48698,
  "aldia": 30643,
  "aldica": 31758,
  "aldo": 8030,
  "ale": 2861,
  "alea": 49963,
  "aleja": 30613,
  "alejo": 17870,
  "alela": 21241,
  "alem": 49320,
  "ales": 465,
  "alez": 28329,
  "alg": 47136,
  "algo": 17417,
  "alguien": 39174,
  "algunas": 45605,
  "algunos": 30570,
  "ali": 27878,
  "alia": 6317,
  "aliciÃ³n": 6155,
  "alidad": 658,
  "alidades": 3801,
  "alim": 33575,
  "alimentaciÃ³n": 44472,
  "alimentar": 15838,
  "alimentarios": 44694,
  "alina": 32681,
  "alismo": 10733,
  "alista": 11297,
  "aliz": 594,
  "aliza": 3324,
  "alizable": 37741,
  "alizacin": 36697,
  "alizacion": 41471,
  "alizaciones": 7663,
  "alizaciÃ³n": 2086,
  "alizada": 3847,
  "alizadas": 7749,
  "alizado": 3049,
  "alizador": 27720,
  "alizados": 4967,
  "alizamos": 11072,
  "alizan": 12615,
  "alizando": 15649,
  "alizar": 2381,
  "alizaron": 26692,
  "alizarse": 21027,
  "alizarÃ¡": 24457,
  "alizarÃ¡n": 49981,
  "alizas": 34800,
  "alizÃ³": 14972,
  "all": 1638,
  "alla": 4580,
  "allado": 13116,
  "alladolid": 17477,
  "allana": 33324,
  "allas": 10634,
  "alle": 37747,
  "allen": 25862,
  "allenge": 32868,
  "aller": 9001,
  "allera": 22469,
  "allery": 40144,
  "alles": 20082,
  "allo": 29543,
  "allorca": 6858,
  "allos": 28561,
  "ally": 18994,
  "alma": 49635,
  "almente": 982,
  "alo": 2987,
  "alos": 30419,
  "als": 17988,
  "alt": 35290,
  "alta": 17024,
  "altad": 15299,
  "alte": 32936,
  "alterna": 48131,
  "alth": 26148,
  "alto": 25790,
  "alu": 3768,
  "alud": 47855,
  "alum": 45098,
  "alupe": 28156,
  "alÃŃa": 17420,
  "alÃŃas": 35572,
  "am": 373,
  "ama": 943,
  "amado": 16783,
  "amadrid": 28852,
  "aman": 5043,
  "amanca": 5919,
  "amar": 8774,
  "amas": 7855,
  "amb": 3371,
  "amba": 41757,
  "ambi": 32122,
  "ambio": 20263,
  "ambios": 26327,
  "ambique": 44876,
  "ambla": 19354,
  "amble": 4467,
  "amblea": 5009,
  "ambleas": 20104,
  "ambos": 41348,
  "ambre": 8123,
  "ambur": 15596,
  "ambÃº": 40563,
  "ame": 4688,
  "amel": 32673,
  "amen": 20081,
  "amena": 33429,
  "amendi": 43983,
  "ament": 34507,
  "amental": 22841,
  "amentales": 34633,
  "amente": 641,
  "amento": 5977,
  "amentos": 7025,
  "americ": 4560,
  "america": 41680,
  "americana": 13469,
  "americanas": 31172,
  "americano": 13443,
  "americanos": 15865,
  "ames": 26861,
  "ami": 8643,
  "amia": 28022,
  "amiento": 1052,
  "amientos": 3463,
  "amil": 1165,
  "amilton": 15842,
  "amina": 46189,
  "aming": 15796,
  "amis": 47308,
  "amo": 7505,
  "amon": 20923,
  "amonte": 23325,
  "amor": 6726,
  "amora": 7207,
  "amos": 606,
  "amov": 49010,
  "amp": 5169,
  "ampar": 23433,
  "ampions": 8430,
  "ampl": 3747,
  "amplona": 4045,
  "amplonaParla": 33152,
  "ampton": 47953,
  "ams": 39103,
  "amuno": 30798,
  "amÃ¡": 13681,
  "amÃ¡s": 44331,
  "amÃ©rica": 9173,
  "amÃ³n": 32468,
  "amÃ³s": 32687,
  "an": 327,
  "ana": 601,
  "anada": 22551,
  "anair": 20214,
  "anal": 12758,
  "anamente": 38951,
  "anas": 2387,
  "anasonic": 34512,
  "anca": 19882,
  "ancar": 28368,
  "ancas": 38217,
  "ance": 5438,
  "ances": 18301,
  "anci": 1729,
  "ancia": 2579,
  "ancias": 19700,
  "anco": 28431,
  "and": 1196,
  "anda": 4485,
  "andal": 15206,
  "andalias": 29045,
  "andalu": 26151,
  "andalucia": 31695,
  "andas": 42897,
  "ande": 34023,
  "ander": 13079,
  "andez": 21477,
  "andia": 11589,
  "andilla": 39735,
  "ando": 490,
  "andon": 36852,
  "andos": 21044,
  "andra": 15844,
  "andre": 27080,
  "andro": 6578,
  "andÃ©s": 13947,
  "andÃŃa": 24791,
  "ane": 5441,
  "anea": 8166,
  "anera": 46813,
  "anes": 4261,
  "anessa": 36786,
  "ang": 6066,
  "anga": 41648,
  "ange": 19951,
  "angel": 17294,
  "ango": 41443,
  "angu": 48139,
  "ani": 11456,
  "ania": 11520,
  "anie": 45513,
  "aniego": 44532,
  "anim": 9182,
  "animidad": 12262,
  "anio": 40681,
  "anismo": 11147,
  "anista": 11145,
  "anistas": 18718,
  "anitarios": 42539,
  "ank": 39281,
  "ann": 22606,
  "anna": 28980,
  "ano": 691,
  "anos": 939,
  "anova": 18450,
  "ans": 987,
  "ansa": 29650,
  "ansas": 45882,
  "ansiÃ³n": 30152,
  "ant": 10546,
  "anta": 7190,
  "antas": 27148,
  "ante": 557,
  "antemente": 31434,
  "antena": 30944,
  "antes": 983,
  "anteÃ³n": 49299,
  "anti": 11445,
  "antia": 41541,
  "anticismo": 29931,
  "antil": 3733,
  "antiles": 8769,
  "antina": 35276,
  "anto": 1880,
  "antos": 23564,
  "anu": 33268,
  "any": 42532,
  "anz": 30321,
  "anza": 1491,
  "anzas": 5248,
  "anÃ¡lisis": 35411,
  "anÃ©s": 11353,
  "anÃŃa": 3615,
  "anÃŃas": 32171,
  "ap": 4700,
  "apa": 3903,
  "apar": 33890,
  "apo": 23805,
  "apor": 27539,
  "apoyo": 42995,
  "app": 30479,
  "aprend": 38893,
  "aprendizaje": 47504,
  "apro": 31802,
  "aquel": 38498,
  "aquÃŃ": 30315,
  "ar": 321,
  "ara": 574,
  "arago": 3650,
  "aragon": 40864,
  "aragoza": 3823,
  "aran": 1424,
  "arancÃ³n": 22638,
  "aranda": 46575,
  "aranja": 47328,
  "aras": 10825,
  "aray": 35072,
  "araz": 26594,
  "arca": 4247,
  "arch": 20621,
  "ard": 1112,
  "arda": 30650,
  "ardar": 14743,
  "arde": 12240,
  "ardes": 42097,
  "ardia": 2837,
  "ardo": 4738,
  "ardos": 49967,
  "ards": 42383,
  "ardÃŃa": 34334,
  "are": 2743,
  "areda": 45917,
  "aredo": 24086,
  "arejo": 38653,
  "arela": 17362,
  "aremos": 5065,
  "aren": 13821,
  "ares": 1135,
  "aresma": 37327,
  "aret": 46159,
  "arez": 7016,
  "ari": 1514,
  "aria": 1175,
  "ariado": 22123,
  "arial": 4117,
  "ariales": 7538,
  "ariamente": 7360,
  "arias": 1346,
  "ariedad": 26724,
  "ario": 642,
  "arioja": 34279,
  "arios": 840,
  "aris": 32780,
  "aritos": 46790,
  "ariu": 46885,
  "arium": 33419,
  "arius": 29352,
  "ariÃ±ena": 34734,
  "ark": 35332,
  "arla": 4567,
  "arlas": 36526,
  "arle": 9618,
  "arlo": 3072,
  "arlos": 13046,
  "arma": 4655,
  "arme": 7918,
  "arna": 31201,
  "arning": 27306,
  "arnos": 5520,
  "aro": 2961,
  "aron": 991,
  "aros": 18388,
  "arquÃŃa": 10524,
  "arr": 4364,
  "arra": 1475,
  "arraga": 43984,
  "arragona": 8629,
  "arrama": 28145,
  "arras": 30039,
  "arre": 9240,
  "arrekin": 38761,
  "arren": 28312,
  "arres": 23920,
  "arrete": 47314,
  "arri": 28288,
  "arria": 27484,
  "arrib": 30942,
  "arribia": 32820,
  "arro": 917,
  "arroa": 48499,
  "arrol": 1037,
  "arros": 46656,
  "arroya": 28694,
  "arry": 13740,
  "arrÃ³n": 44698,
  "ars": 16356,
  "arse": 1003,
  "art": 7934,
  "arte": 3509,
  "artes": 37439,
  "arti": 18057,
  "articulo": 48543,
  "arto": 18094,
  "artÃŃculo": 39694,
  "ary": 39310,
  "arÃ¡": 838,
  "arÃ¡n": 1695,
  "arÃ©": 29194,
  "arÃ³n": 42973,
  "arÃŃa": 2833,
  "as": 322,
  "asa": 11474,
  "asaÃ±a": 47628,
  "asca": 39353,
  "ascript": 20776,
  "ase": 2551,
  "asen": 19222,
  "ases": 12091,
  "ash": 6277,
  "ashi": 36245,
  "ashington": 10716,
  "ashion": 22557,
  "asi": 23725,
  "asis": 17931,
  "asistencia": 45826,
  "asiÃ³n": 17724,
  "aso": 9970,
  "asp": 45835,
  "aspx": 45928,
  "ast": 14935,
  "asta": 735,
  "astas": 12704,
  "aste": 7613,
  "asterio": 9900,
  "asto": 33493,
  "astos": 49526,
  "astre": 36172,
  "asturi": 40709,
  "asu": 22743,
  "asum": 42499,
  "asy": 28938,
  "asÃŃ": 24741,
  "at": 4129,
  "ata": 11116,
  "ataque": 30385,
  "atch": 14243,
  "ate": 6519,
  "ategui": 47030,
  "aten": 34938,
  "ath": 46820,
  "atilidad": 21124,
  "atlÃ¡n": 46858,
  "ato": 5746,
  "atom": 33176,
  "atos": 7714,
  "atre": 49835,
  "atres": 22094,
  "atro": 1352,
  "au": 3099,
  "aud": 31324,
  "aum": 48249,
  "aunque": 10110,
  "auto": 24185,
  "auton": 42006,
  "autor": 23625,
  "av": 547,
  "ava": 10102,
  "avaca": 30437,
  "avaj": 8585,
  "avajillas": 8920,
  "aval": 7181,
  "avales": 27197,
  "avan": 37909,
  "avana": 36077,
  "avanas": 44900,
  "avante": 49439,
  "avarra": 30879,
  "avatios": 43177,
  "ave": 7029,
  "avedra": 36641,
  "aven": 17675,
  "avente": 21523,
  "aventura": 38704,
  "aver": 24732,
  "avera": 5717,
  "aves": 10836,
  "avi": 16130,
  "avia": 31174,
  "avid": 29717,
  "avidas": 48033,
  "avier": 11282,
  "avila": 50017,
  "avirus": 37702,
  "aviso": 49215,
  "avista": 45007,
  "avo": 46129,
  "avor": 1515,
  "avos": 36851,
  "avy": 31419,
  "ay": 912,
  "aya": 3967,
  "ayak": 43418,
  "ayas": 33744,
  "ayer": 36682,
  "ayo": 5126,
  "ayor": 37321,
  "ayos": 36448,
  "ayuda": 33418,
  "az": 7665,
  "azares": 33342,
  "aÃ±": 42511,
  "aÃ±a": 41644,
  "aÃ±o": 32989,
  "aÃ±os": 10676,
  "aÃºn": 30478,
  "b": 119,
  "ba": 634,
  "bable": 26649,
  "bablemente": 19140,
  "bach": 34746,
  "bacho": 43493,
  "baciones": 30991,
  "baciÃ³n": 15885,
  "back": 12372,
  "baco": 9708,
  "bada": 25720,
  "bado": 1771,
  "bador": 46788,
  "badora": 44049,
  "badores": 35037,
  "bados": 12685,
  "bag": 24009,
  "bah": 44253,
  "bai": 23838,
  "baj": 3522,
  "baja": 28835,
  "bajo": 5628,
  "bajos": 40036,
  "bal": 2371,
  "bala": 38478,
  "balife": 41173,
  "ball": 17501,
  "balos": 21498,
  "bamos": 5176,
  "ban": 1526,
  "bana": 10902,
  "banas": 27065,
  "band": 41912,
  "bando": 40420,
  "bank": 23072,
  "bano": 9663,
  "banos": 20196,
  "bao": 4347,
  "bar": 1194,
  "bara": 12106,
  "barcelona": 40885,
  "barra": 42163,
  "bas": 2206,
  "basa": 25153,
  "base": 19923,
  "basket": 35424,
  "bastante": 42125,
  "bastro": 25162,
  "bat": 28036,
  "bata": 28100,
  "bate": 11383,
  "bay": 26731,
  "bb": 34564,
  "be": 2069,
  "bea": 36467,
  "beb": 38947,
  "bec": 33066,
  "beda": 18318,
  "bel": 13207,
  "bell": 25765,
  "bella": 11197,
  "belo": 41770,
  "ben": 11645,
  "benos": 45107,
  "beo": 48181,
  "beos": 44054,
  "ber": 1716,
  "bera": 46264,
  "berg": 5648,
  "berna": 37451,
  "bernam": 48961,
  "bero": 19385,
  "berri": 26215,
  "berry": 29166,
  "bers": 34964,
  "bert": 12861,
  "berto": 20090,
  "bes": 7748,
  "besitos": 45764,
  "besos": 27959,
  "bet": 34609,
  "bete": 9570,
  "bf": 38544,
  "bi": 530,
  "bia": 5754,
  "bial": 41889,
  "bian": 30925,
  "biar": 11023,
  "bias": 20261,
  "biblio": 41722,
  "biblioteca": 44895,
  "bica": 41009,
  "bico": 27365,
  "bicos": 22169,
  "bide": 41185,
  "bido": 42749,
  "bie": 23157,
  "bien": 12895,
  "bier": 3573,
  "bierta": 14477,
  "bierto": 32486,
  "bies": 35893,
  "bieta": 28869,
  "bil": 5142,
  "biles": 12350,
  "bili": 38864,
  "bilidad": 3269,
  "bilidades": 26252,
  "bilizar": 22627,
  "billa": 48026,
  "bin": 20820,
  "bina": 24408,
  "bio": 4403,
  "biol": 21330,
  "bios": 9485,
  "bir": 9562,
  "bis": 19993,
  "bit": 7299,
  "bita": 15874,
  "bitda": 45783,
  "bito": 17939,
  "bitos": 35506,
  "biÃ©n": 666,
  "biÃ©ndose": 35661,
  "biÃ³": 4462,
  "biÃ³ticos": 22979,
  "bl": 524,
  "bla": 5829,
  "blado": 44573,
  "blan": 14793,
  "blanca": 40930,
  "blanco": 37469,
  "blar": 28684,
  "blas": 19203,
  "ble": 678,
  "bledo": 45494,
  "bledon": 29582,
  "blema": 34171,
  "blemas": 22572,
  "bles": 2448,
  "blica": 25316,
  "blish": 38067,
  "blishment": 39867,
  "blo": 2123,
  "blog": 7794,
  "blogs": 10131,
  "blogspot": 11491,
  "blon": 33238,
  "blonuevo": 33840,
  "bloque": 10525,
  "blos": 5030,
  "bn": 26337,
  "bnb": 37122,
  "bo": 1383,
  "boa": 13070,
  "board": 20156,
  "boc": 22908,
  "bol": 1527,
  "bola": 20775,
  "bole": 49510,
  "bolo": 49772,
  "bon": 12290,
  "bona": 28324,
  "bonato": 49803,
  "bones": 46128,
  "book": 3209,
  "books": 36265,
  "bor": 10324,
  "bord": 15455,
  "borne": 31508,
  "borra": 47974,
  "bos": 6520,
  "bot": 44899,
  "bots": 44566,
  "bourne": 34706,
  "box": 12083,
  "boy": 26139,
  "br": 575,
  "bra": 1611,
  "braciÃ³n": 31169,
  "brada": 28269,
  "brado": 8994,
  "brados": 25241,
  "bral": 10479,
  "brales": 23652,
  "bramiento": 47279,
  "bran": 6696,
  "brar": 14577,
  "bras": 1895,
  "bre": 653,
  "break": 36297,
  "bregat": 21062,
  "breras": 30957,
  "brero": 3005,
  "bres": 1986,
  "brexit": 35612,
  "bri": 18348,
  "bria": 3350,
  "brica": 7287,
  "bricas": 17561,
  "brico": 15926,
  "bricos": 47858,
  "brities": 34254,
  "bro": 2862,
  "broda": 47975,
  "bron": 37266,
  "bros": 2478,
  "browser": 17546,
  "bru": 46473,
  "brÃ³": 44424,
  "brÃ³n": 36672,
  "brÃŃa": 31543,
  "bs": 15685,
  "bsp": 44433,
  "bu": 8035,
  "buen": 15325,
  "buena": 23612,
  "bueno": 26434,
  "buff": 37275,
  "bul": 13593,
  "bula": 33737,
  "bull": 42490,
  "bulo": 20607,
  "bulos": 37200,
  "bum": 7187,
  "bur": 5452,
  "burg": 22078,
  "burgo": 9842,
  "buru": 37016,
  "bury": 28693,
  "bus": 5509,
  "buscar": 42397,
  "buses": 10673,
  "by": 7969,
  "byn": 43343,
  "bÃ¡n": 30800,
  "bÃ©": 22580,
  "bÃ©lÃ©": 47755,
  "bÃ³": 24310,
  "bÃ³l": 11373,
  "bÃ³n": 16987,
  "bÃºs": 8956,
  "bÃŃ": 47107,
  "c": 120,
  "ca": 445,
  "cab": 5295,
  "caba": 8923,
  "caban": 42758,
  "cabel": 38198,
  "cable": 21544,
  "cables": 46188,
  "caci": 33350,
  "cacielos": 36661,
  "caciones": 3851,
  "caciÃ³n": 13432,
  "cad": 4539,
  "cada": 7041,
  "cadas": 14827,
  "cade": 45355,
  "caden": 17406,
  "cado": 1363,
  "cador": 16127,
  "cadores": 15957,
  "cados": 3138,
  "caja": 19662,
  "cal": 919,
  "cala": 24594,
  "calcul": 44022,
  "cald": 17263,
  "calde": 17738,
  "caldesa": 31332,
  "cales": 6571,
  "calidad": 33400,
  "calle": 16432,
  "calo": 40959,
  "cam": 2613,
  "cambiar": 50105,
  "cambio": 20238,
  "camente": 23412,
  "camiento": 6986,
  "camientos": 18975,
  "camino": 37257,
  "camos": 12741,
  "camp": 41031,
  "campa": 24890,
  "campaign": 26231,
  "campaÃ±a": 31191,
  "campe": 17750,
  "campeÃ³n": 43300,
  "campo": 24895,
  "can": 870,
  "cana": 33392,
  "canal": 47184,
  "candida": 28811,
  "cando": 10198,
  "canes": 20976,
  "cano": 16322,
  "canos": 20877,
  "cansa": 35582,
  "cant": 42506,
  "cantabria": 40760,
  "cante": 19272,
  "cantes": 39586,
  "cantidad": 45961,
  "canz": 44640,
  "cao": 20535,
  "cap": 33913,
  "capa": 3719,
  "capaci": 15828,
  "capacidad": 4996,
  "capital": 29356,
  "car": 688,
  "cara": 10543,
  "caras": 25384,
  "caray": 44113,
  "carb": 27811,
  "carburos": 31920,
  "carcel": 29170,
  "card": 33624,
  "cardio": 41681,
  "care": 47715,
  "caria": 31549,
  "cario": 14591,
  "carlo": 29287,
  "carlos": 30058,
  "carn": 19953,
  "carnaciÃ³n": 32216,
  "carnero": 37874,
  "caro": 41751,
  "caron": 22217,
  "carr": 21018,
  "carra": 46201,
  "carral": 39244,
  "carre": 46383,
  "carril": 15109,
  "carriles": 38888,
  "carse": 17619,
  "carÃ¡": 31565,
  "cas": 963,
  "casa": 16341,
  "casado": 27395,
  "casas": 35774,
  "case": 40837,
  "casi": 19308,
  "caso": 6565,
  "cast": 11809,
  "caste": 19289,
  "castejon": 20233,
  "casts": 19607,
  "cat": 17027,
  "catal": 20015,
  "catalunya": 43373,
  "cate": 13782,
  "categ": 34754,
  "cati": 36058,
  "cau": 13096,
  "cauciÃ³n": 22362,
  "causa": 45115,
  "cav": 12501,
  "cavar": 49842,
  "cayo": 30811,
  "cc": 24298,
  "cciÃ³n": 8814,
  "cd": 33703,
  "ce": 506,
  "cea": 19868,
  "ceas": 48646,
  "ceb": 49563,
  "cebo": 35237,
  "cebook": 3455,
  "ced": 933,
  "ceda": 25522,
  "cede": 12327,
  "cedente": 30707,
  "cedentes": 12675,
  "ceder": 32918,
  "cedo": 23601,
  "cef": 49725,
  "cel": 1035,
  "cela": 10189,
  "celaciones": 39618,
  "cele": 32180,
  "celes": 21422,
  "celi": 46234,
  "cello": 14748,
  "celo": 13931,
  "celona": 1639,
  "celotti": 44083,
  "cemos": 31273,
  "cen": 1213,
  "cena": 13268,
  "cenario": 36088,
  "cenarios": 37682,
  "cenas": 7112,
  "cencia": 25650,
  "cend": 2295,
  "ceno": 28975,
  "cenos": 45562,
  "cens": 9082,
  "cense": 22260,
  "censiÃ³n": 27942,
  "censo": 4627,
  "censos": 28165,
  "cent": 32416,
  "centa": 6063,
  "cente": 38802,
  "centes": 35082,
  "centr": 18251,
  "centro": 21865,
  "centros": 39865,
  "ceo": 18767,
  "ceos": 27489,
  "cep": 1432,
  "cepciÃ³n": 5461,
  "ceptable": 24718,
  "cepticismo": 37884,
  "cepto": 11039,
  "cer": 567,
  "cera": 9486,
  "ceramente": 33625,
  "ceras": 37238,
  "cerca": 41893,
  "cerdo": 10882,
  "cerdÃł": 36043,
  "cere": 42395,
  "ceres": 7078,
  "cern": 38671,
  "cero": 13134,
  "ceros": 24881,
  "cers": 35790,
  "certid": 9713,
  "cerÃŃa": 16036,
  "ces": 609,
  "cesa": 9510,
  "cesas": 35683,
  "cesis": 18615,
  "cesiÃ³n": 5688,
  "ceso": 1172,
  "cesos": 39576,
  "cess": 42879,
  "cesto": 8014,
  "cesvalles": 20899,
  "cet": 49868,
  "ceta": 10051,
  "cetas": 20912,
  "cete": 6606,
  "cf": 18528,
  "cfort": 42634,
  "ch": 434,
  "cha": 858,
  "chada": 19192,
  "chadas": 30012,
  "chado": 8704,
  "chados": 32577,
  "chain": 34841,
  "chal": 43205,
  "cham": 45241,
  "chamos": 31307,
  "chan": 13251,
  "chand": 41034,
  "chandising": 43813,
  "chando": 17534,
  "change": 41455,
  "channel": 35150,
  "char": 2395,
  "charse": 32892,
  "chas": 2838,
  "chat": 27000,
  "che": 1191,
  "cheb": 28696,
  "chebuena": 29214,
  "chef": 45388,
  "chega": 37844,
  "chego": 22777,
  "chegos": 38499,
  "chel": 15398,
  "chen": 12939,
  "chenique": 24799,
  "cher": 11556,
  "chera": 30628,
  "cheras": 45332,
  "chero": 38717,
  "ches": 2763,
  "chester": 12307,
  "chet": 27834,
  "chez": 1759,
  "chi": 10653,
  "chill": 36224,
  "chillo": 47869,
  "chin": 26501,
  "china": 37026,
  "chino": 49975,
  "chis": 26808,
  "chismo": 37234,
  "chista": 30786,
  "chistas": 48617,
  "chita": 33953,
  "chito": 44378,
  "chner": 36781,
  "cho": 1092,
  "chon": 42330,
  "chool": 17339,
  "chor": 20782,
  "chos": 1455,
  "chs": 31496,
  "cht": 24959,
  "chu": 13367,
  "chuf": 21120,
  "chura": 29341,
  "chus": 36072,
  "chusetts": 43505,
  "chwitz": 45447,
  "chÃ©": 43517,
  "chÃ³": 23171,
  "chÃ³n": 33353,
  "chÃŃs": 19133,
  "ci": 324,
  "cia": 430,
  "ciable": 48067,
  "ciaciones": 3763,
  "ciaciÃ³n": 25173,
  "ciada": 22604,
  "ciadamente": 18699,
  "ciadas": 44069,
  "ciado": 9460,
  "ciados": 21368,
  "cial": 835,
  "ciales": 2630,
  "cialidad": 25965,
  "cialmente": 15265,
  "ciamadrid": 42401,
  "cian": 28028,
  "ciana": 14723,
  "ciano": 10602,
  "cianos": 12166,
  "ciar": 5956,
  "ciares": 42412,
  "cias": 610,
  "ciate": 35183,
  "cib": 6774,
  "cible": 22265,
  "cibles": 46367,
  "cic": 14645,
  "cica": 46220,
  "cicl": 21610,
  "ciclismo": 25167,
  "cico": 33975,
  "cicos": 36300,
  "cid": 1723,
  "cida": 5405,
  "cidad": 1338,
  "cidas": 7991,
  "ciden": 4251,
  "cidencia": 42942,
  "cidencias": 38766,
  "cidental": 7883,
  "cidentales": 17139,
  "cidente": 3710,
  "cidentes": 8405,
  "cidez": 23194,
  "cidiÃ³": 29138,
  "cido": 1315,
  "cidos": 4207,
  "cie": 34376,
  "ciedad": 19940,
  "ciencia": 13209,
  "ciencias": 37751,
  "cienda": 5259,
  "ciende": 9794,
  "cienden": 22405,
  "ciendo": 2125,
  "cient": 37926,
  "cientas": 28920,
  "ciente": 4869,
  "cientemente": 31175,
  "cientes": 7420,
  "cientos": 15130,
  "cier": 2085,
  "ciera": 31668,
  "cieron": 9589,
  "cierta": 26791,
  "cierto": 7465,
  "ciertos": 17745,
  "cies": 29153,
  "cif": 20536,
  "cificado": 44776,
  "cija": 41501,
  "cil": 988,
  "ciles": 7506,
  "cilla": 11493,
  "cillas": 24541,
  "ciller": 20612,
  "cillo": 17881,
  "cillos": 25981,
  "cima": 3149,
  "cimiento": 1650,
  "cimientos": 4882,
  "cimo": 24286,
  "cimos": 25142,
  "cin": 895,
  "cina": 4483,
  "cinas": 9716,
  "cinco": 9490,
  "cind": 5085,
  "cindible": 30571,
  "cine": 26160,
  "cines": 36229,
  "cing": 12898,
  "cini": 43032,
  "cino": 7091,
  "cinos": 40841,
  "cinto": 8036,
  "cintos": 28851,
  "cinueve": 46545,
  "cio": 721,
  "ciocho": 28072,
  "cion": 404,
  "ciona": 3515,
  "cionada": 7259,
  "cionadas": 12272,
  "cionado": 2843,
  "cionador": 43648,
  "cionados": 4434,
  "cional": 729,
  "cionales": 1684,
  "cionalidad": 6669,
  "cionalizaciÃ³n": 12637,
  "cionalizar": 35816,
  "cionalmente": 14765,
  "cionamiento": 6260,
  "cionamos": 38633,
  "cionan": 12038,
  "cionando": 35389,
  "cionar": 2671,
  "cionario": 13030,
  "cionarios": 25345,
  "cione": 22080,
  "ciones": 462,
  "cionismo": 18795,
  "cionista": 11618,
  "cionistas": 10094,
  "cions": 40023,
  "cionÃ³": 39529,
  "cios": 1124,
  "ciosa": 10209,
  "ciosas": 26228,
  "cioso": 8467,
  "ciosos": 26108,
  "cip": 781,
  "cipa": 12424,
  "cipaciÃ³n": 12842,
  "cipe": 8132,
  "cipes": 19747,
  "cipl": 5807,
  "cir": 4917,
  "ciru": 46241,
  "cirÃ¡": 33290,
  "cis": 1405,
  "cisco": 34427,
  "cisiones": 36835,
  "cisiÃ³n": 17840,
  "cismo": 7775,
  "ciso": 30920,
  "cisos": 34657,
  "cista": 8710,
  "cistas": 11743,
  "cita": 8399,
  "citamente": 26092,
  "citas": 19296,
  "cito": 4216,
  "citos": 13082,
  "citotal": 49205,
  "ciudad": 16916,
  "ciudadanos": 34073,
  "civil": 28697,
  "ciÃ©ndo": 11047,
  "ciÃ©ndose": 40888,
  "ciÃ³": 3116,
  "ciÃ³n": 360,
  "ciÃĥ": 10352,
  "ciÑĥn": 34245,
  "ck": 2226,
  "ckchain": 37360,
  "cker": 20549,
  "cking": 41062,
  "cks": 40916,
  "cl": 595,
  "cla": 4061,
  "clado": 12712,
  "clados": 33127,
  "claje": 13638,
  "clam": 40550,
  "clan": 48667,
  "clar": 10966,
  "clara": 43580,
  "claro": 39539,
  "clas": 15263,
  "clave": 26477,
  "cle": 14232,
  "clerosis": 42561,
  "cles": 15186,
  "click": 50032,
  "clima": 34585,
  "clip": 10775,
  "clo": 6630,
  "cloa": 9355,
  "clopedia": 23431,
  "club": 26282,
  "clus": 24970,
  "clusiÃ³n": 43352,
  "cm": 18352,
  "cn": 901,
  "cnica": 36424,
  "co": 472,
  "cob": 34984,
  "cocina": 47151,
  "cock": 39601,
  "cod": 23682,
  "cog": 23255,
  "coin": 32662,
  "col": 1652,
  "cola": 21158,
  "colas": 13029,
  "coles": 3092,
  "coli": 44636,
  "colmo": 28917,
  "coln": 43546,
  "colo": 8250,
  "cologÃŃa": 26208,
  "color": 42890,
  "colÃŃa": 36403,
  "com": 756,
  "combus": 46584,
  "come": 27963,
  "comedor": 29756,
  "comer": 29668,
  "comisiÃ³n": 44390,
  "commerce": 35027,
  "como": 5279,
  "compa": 42689,
  "compaÃ±": 19444,
  "compe": 34459,
  "comple": 24379,
  "compr": 20094,
  "compromiso": 35682,
  "comun": 6762,
  "comunicaciones": 10907,
  "comunicaciÃ³n": 25749,
  "comunidad": 15755,
  "comunidades": 42390,
  "con": 571,
  "cona": 27336,
  "conada": 38160,
  "conce": 27132,
  "concil": 49413,
  "cond": 34065,
  "condi": 50080,
  "conduc": 46306,
  "conec": 24513,
  "cones": 8570,
  "conexiÃ³n": 36772,
  "conf": 14896,
  "conferencia": 31960,
  "confianza": 47500,
  "confidencial": 34336,
  "conform": 39606,
  "congreso": 44129,
  "coni": 28428,
  "cono": 22060,
  "conoci": 22770,
  "conocido": 43825,
  "conocimiento": 40429,
  "conos": 45432,
  "cons": 4950,
  "consciente": 40594,
  "conse": 16337,
  "conserv": 32644,
  "consider": 49337,
  "constitu": 28121,
  "constitucional": 43146,
  "consul": 41500,
  "consumo": 31866,
  "contac": 42166,
  "conten": 27880,
  "content": 43980,
  "contin": 16424,
  "continu": 46136,
  "contr": 1200,
  "contra": 14012,
  "control": 14092,
  "conven": 41653,
  "coo": 23452,
  "coordin": 39253,
  "copa": 11574,
  "cope": 33240,
  "copia": 14177,
  "copio": 19409,
  "copios": 39170,
  "copo": 25949,
  "cor": 1622,
  "cora": 40498,
  "coras": 39372,
  "cord": 14801,
  "cordia": 22858,
  "core": 14959,
  "coreana": 44142,
  "coreano": 31465,
  "corpor": 17569,
  "corr": 34661,
  "correo": 45698,
  "corriente": 41890,
  "cos": 1376,
  "cosa": 21166,
  "cosas": 29071,
  "coso": 24217,
  "cotas": 47096,
  "coteca": 47465,
  "cou": 42388,
  "count": 37729,
  "cp": 50247,
  "cr": 4447,
  "cra": 6002,
  "cracia": 29156,
  "craft": 47880,
  "cran": 16096,
  "crania": 16701,
  "crata": 43782,
  "cre": 1260,
  "crea": 45483,
  "crear": 44414,
  "creas": 46692,
  "creen": 42080,
  "creo": 33189,
  "cres": 20478,
  "cretamente": 19013,
  "cri": 1569,
  "crib": 2817,
  "cribe": 7251,
  "cribir": 6852,
  "cribirse": 12104,
  "crim": 46646,
  "crimin": 7674,
  "crimina": 17445,
  "criminaciÃ³n": 46179,
  "crin": 40525,
  "crinologÃŃa": 47562,
  "crip": 3946,
  "cripcin": 41143,
  "cripcion": 42548,
  "cripciones": 8639,
  "cripciÃ³n": 3511,
  "cript": 9032,
  "cripti": 33985,
  "criptor": 47166,
  "cris": 21012,
  "crisis": 35236,
  "crita": 11914,
  "critas": 15738,
  "crito": 5831,
  "critos": 8837,
  "cro": 8695,
  "cron": 16464,
  "cros": 44454,
  "cross": 36406,
  "cru": 25110,
  "cruci": 37399,
  "cruz": 25441,
  "crÃ©dito": 43005,
  "crÃ©ditos": 47764,
  "crÃŃ": 7452,
  "crÃŃbase": 29016,
  "crÃŃbete": 9982,
  "crÃŃtica": 25247,
  "cs": 14874,
  "cta": 35509,
  "cter": 2308,
  "cto": 2852,
  "ctor": 49794,
  "ctr": 25525,
  "cu": 417,
  "cua": 11487,
  "cuador": 12112,
  "cual": 11342,
  "cualquier": 34135,
  "cuando": 14607,
  "cuanto": 39889,
  "cuar": 35916,
  "cuatro": 19682,
  "cubierta": 17110,
  "cubr": 29748,
  "cubre": 44363,
  "cubrir": 48663,
  "cuel": 27647,
  "cuela": 31182,
  "cuellos": 36949,
  "cuen": 20005,
  "cuence": 25447,
  "cuencia": 42289,
  "cuenta": 11540,
  "cuentos": 27379,
  "cuentro": 19648,
  "cuentros": 34579,
  "cuer": 17884,
  "cuerda": 49608,
  "cuerdo": 20762,
  "cuerpos": 41453,
  "cuesta": 42979,
  "cuito": 16950,
  "cuitos": 36250,
  "cul": 1449,
  "cula": 6898,
  "culaciones": 29105,
  "culaciÃ³n": 10116,
  "culada": 14069,
  "culado": 14746,
  "culan": 24590,
  "cular": 1533,
  "culares": 11438,
  "culas": 13215,
  "cules": 21355,
  "culo": 2597,
  "culos": 3869,
  "culosis": 39775,
  "culpa": 35640,
  "cultad": 6415,
  "cultur": 43126,
  "cultura": 14049,
  "cultural": 18503,
  "culturales": 45059,
  "culturalidad": 45714,
  "cum": 24742,
  "cumpl": 36405,
  "cun": 4318,
  "cup": 44088,
  "cur": 859,
  "cura": 9558,
  "curio": 24713,
  "curo": 32330,
  "curr": 23000,
  "currido": 42147,
  "curs": 19898,
  "cursal": 24932,
  "cursales": 33029,
  "curso": 2314,
  "cursor": 47369,
  "cursos": 29350,
  "cus": 16024,
  "cusiÃ³n": 26025,
  "cute": 17287,
  "cuzzi": 37999,
  "cuÃ¡l": 29035,
  "cuÃ¡n": 30025,
  "cv": 36980,
  "cy": 15032,
  "cÃ¡": 38073,
  "cÃ¡mara": 25990,
  "cÃ¡n": 11617,
  "cÃ¡ngel": 44598,
  "cÃ¡r": 19749,
  "cÃ¡rcel": 38179,
  "cÃ©": 16969,
  "cÃ©n": 12474,
  "cÃ©s": 3866,
  "cÃ©u": 11428,
  "cÃ³": 6473,
  "cÃ³mo": 9152,
  "cÃ³n": 4569,
  "cÃ³p": 25575,
  "cÃ³pica": 49729,
  "cÃº": 12759,
  "cÃŃ": 16906,
  "cÃŃa": 1727,
  "cÃŃan": 44605,
  "cÃŃas": 13460,
  "cÃŃn": 33844,
  "cÃŃs": 35100,
  "d": 121,
  "da": 458,
  "dac": 5635,
  "dad": 597,
  "dades": 14081,
  "dado": 15997,
  "dadura": 15141,
  "daf": 16947,
  "dafone": 18080,
  "dago": 44204,
  "daje": 10742,
  "daka": 50242,
  "dal": 1492,
  "dale": 39619,
  "dalena": 16564,
  "dalo": 41497,
  "dam": 14581,
  "dan": 4051,
  "dano": 50089,
  "dap": 2812,
  "dar": 4470,
  "dares": 14332,
  "darse": 38875,
  "das": 758,
  "dash": 37191,
  "dashian": 40512,
  "data": 49312,
  "date": 25046,
  "datos": 40931,
  "day": 23425,
  "daza": 34083,
  "dazo": 46707,
  "daÃ±o": 40863,
  "daÃ±os": 32169,
  "dd": 32310,
  "deG": 24552,
  "dea": 13710,
  "deas": 24070,
  "deb": 12639,
  "debate": 47197,
  "debe": 31091,
  "debido": 46909,
  "dec": 16936,
  "deci": 34812,
  "ded": 41797,
  "def": 14656,
  "defensa": 41008,
  "deg": 40591,
  "dej": 39167,
  "dejar": 45524,
  "del": 5333,
  "dela": 28120,
  "dele": 16367,
  "delincu": 47114,
  "dem": 3501,
  "demas": 43798,
  "democ": 14511,
  "democracia": 22543,
  "demont": 5111,
  "demÃ³cra": 19171,
  "den": 930,
  "dena": 24810,
  "denal": 15547,
  "denas": 16504,
  "denavarra": 43827,
  "denes": 9681,
  "denomin": 37297,
  "denos": 49066,
  "dense": 34902,
  "dentro": 33690,
  "deo": 38600,
  "deos": 29514,
  "dep": 30841,
  "depend": 24139,
  "depor": 44796,
  "deporte": 30852,
  "deportes": 45651,
  "der": 876,
  "dera": 12570,
  "deras": 5338,
  "derecha": 29183,
  "derecho": 31230,
  "derechos": 46764,
  "dero": 13560,
  "derra": 45110,
  "ders": 39513,
  "derÃŃa": 12569,
  "derÃŃas": 31557,
  "des": 772,
  "desa": 3818,
  "desarrol": 29030,
  "desarrollo": 43606,
  "descar": 44334,
  "desd": 12522,
  "desde": 12628,
  "dese": 22996,
  "deses": 19900,
  "desillas": 27161,
  "desl": 46067,
  "despuÃ©s": 33822,
  "deste": 27417,
  "detal": 43130,
  "determin": 16753,
  "determinaciÃ³n": 18954,
  "dev": 35198,
  "dez": 23951,
  "df": 11583,
  "di": 558,
  "dia": 6635,
  "dial": 2001,
  "diales": 9271,
  "dialmente": 30949,
  "diano": 39799,
  "diar": 44123,
  "diario": 7238,
  "diariod": 41840,
  "diariode": 42478,
  "diarios": 38901,
  "dias": 9157,
  "dic": 1734,
  "dica": 2318,
  "dical": 20456,
  "dicamente": 19574,
  "dicas": 10450,
  "dicciÃ³n": 40409,
  "dice": 6678,
  "dices": 14029,
  "dicho": 32383,
  "dicionado": 6279,
  "diciones": 7988,
  "diciÃ³n": 14070,
  "dico": 2786,
  "dicos": 4594,
  "dicto": 48909,
  "dida": 1561,
  "didas": 8631,
  "dido": 42621,
  "die": 13233,
  "dies": 47259,
  "diez": 44007,
  "dif": 26390,
  "difer": 38155,
  "difÃŃcil": 47730,
  "dig": 13257,
  "digital": 27386,
  "digo": 40726,
  "dijo": 26021,
  "dil": 44637,
  "dillo": 26376,
  "din": 17431,
  "ding": 25122,
  "dio": 4531,
  "dios": 18509,
  "dipu": 12211,
  "dique": 18241,
  "dir": 41980,
  "direc": 4188,
  "direcciÃ³n": 27862,
  "directo": 31135,
  "director": 15621,
  "directora": 34755,
  "dirig": 29106,
  "dis": 6038,
  "discipl": 28775,
  "disea": 34917,
  "dit": 31559,
  "dita": 14841,
  "ditas": 39039,
  "dito": 14345,
  "ditos": 17588,
  "div": 31155,
  "diz": 4682,
  "diÃ¡logo": 47634,
  "diÃ©ndose": 33273,
  "diÃ³": 3106,
  "dl": 44938,
  "dle": 33270,
  "dlvr": 30324,
  "dn": 39649,
  "do": 367,
  "doba": 4421,
  "dobl": 39400,
  "doble": 25109,
  "doc": 22320,
  "docu": 25019,
  "dog": 47690,
  "doia": 35780,
  "dol": 9039,
  "dole": 16852,
  "dolf": 43113,
  "dolfo": 13039,
  "dom": 34006,
  "dome": 30677,
  "domin": 28412,
  "don": 8492,
  "doncia": 39866,
  "donde": 17453,
  "dones": 19129,
  "donos": 21994,
  "door": 39897,
  "dor": 11108,
  "dorf": 44643,
  "dos": 560,
  "dose": 2080,
  "dosis": 43803,
  "doso": 32885,
  "dov": 39040,
  "down": 39907,
  "doy": 39444,
  "dpa": 45300,
  "dr": 6363,
  "dra": 35271,
  "dremos": 27251,
  "dro": 14011,
  "drola": 16209,
  "drome": 12293,
  "drÃ¡": 4828,
  "drÃ¡n": 10341,
  "drÃŃa": 12259,
  "drÃŃan": 39555,
  "ds": 9260,
  "dt": 33122,
  "du": 839,
  "duc": 681,
  "duca": 2930,
  "ducaciÃ³n": 1944,
  "ducciÃ³n": 2171,
  "duce": 16389,
  "duci": 1802,
  "ducido": 23831,
  "ducir": 2588,
  "ducto": 33361,
  "ductor": 31133,
  "dula": 18941,
  "dulo": 11375,
  "dura": 4690,
  "durante": 37692,
  "duras": 42854,
  "dy": 14393,
  "dÃ¡n": 19804,
  "dÃ©": 16299,
  "dÃ³": 14108,
  "dÃ³n": 10398,
  "dÃ³nde": 30042,
  "dÃ³Ã±ez": 32367,
  "dÃł": 32286,
  "dÃŃa": 5671,
  "dÃŃas": 24549,
  "e": 122,
  "eG": 22963,
  "ea": 802,
  "eacute": 46411,
  "eada": 29970,
  "eado": 16486,
  "eados": 39642,
  "eaga": 45303,
  "eal": 13344,
  "eamente": 8366,
  "eamiento": 14233,
  "ean": 6728,
  "eando": 28767,
  "ear": 4492,
  "earch": 23887,
  "eares": 47977,
  "ears": 36344,
  "eas": 1731,
  "eat": 21762,
  "eath": 32642,
  "eather": 44077,
  "eats": 43151,
  "eau": 24949,
  "eb": 717,
  "ebas": 4935,
  "ebate": 46219,
  "ebe": 47850,
  "eber": 32062,
  "eberg": 37112,
  "ebio": 29611,
  "ebo": 37022,
  "ebra": 14922,
  "ebre": 46626,
  "ebro": 7921,
  "ec": 394,
  "eca": 5920,
  "ecas": 7902,
  "ecciÃ³n": 38665,
  "ecco": 37539,
  "ece": 1150,
  "ecedor": 20212,
  "ecemos": 12018,
  "ecen": 2742,
  "ecencia": 36775,
  "ecer": 1871,
  "ecera": 37347,
  "ecerÃ¡": 34684,
  "ecerÃŃa": 17670,
  "eces": 730,
  "ech": 672,
  "echa": 2104,
  "echas": 5413,
  "eche": 21672,
  "echea": 45566,
  "echo": 3329,
  "echos": 4624,
  "echt": 45018,
  "eci": 1894,
  "ecible": 49546,
  "ecid": 34588,
  "ecida": 9605,
  "ecidas": 14964,
  "ecido": 4509,
  "ecidos": 9376,
  "eciendo": 10133,
  "eciente": 36988,
  "eciera": 25008,
  "ecieran": 49200,
  "ecieron": 13147,
  "ecimiento": 10256,
  "ecimientos": 40536,
  "ecino": 49012,
  "ecir": 18350,
  "eciÃ³": 5194,
  "eck": 14508,
  "ecla": 25080,
  "eco": 8084,
  "ecologÃŃa": 46406,
  "econ": 7977,
  "economia": 27162,
  "economÃŃa": 29723,
  "econse": 26343,
  "ecos": 17529,
  "ecra": 41255,
  "ecre": 10420,
  "ecretaria": 28457,
  "ecretario": 15682,
  "ect": 14908,
  "ector": 26136,
  "ecu": 1263,
  "ecuatro": 38933,
  "ecuatrouno": 39235,
  "ecuciÃ³n": 4713,
  "ecuencias": 5446,
  "ecÃ©": 16869,
  "ecÃŃa": 5316,
  "ecÃŃan": 12841,
  "ed": 423,
  "eda": 3202,
  "edad": 836,
  "edades": 2382,
  "edas": 10662,
  "ede": 10387,
  "eder": 2383,
  "edera": 43433,
  "ederaciones": 48845,
  "ederaciÃ³n": 10988,
  "ederal": 29533,
  "edero": 17230,
  "ederos": 35647,
  "edes": 16064,
  "edi": 14713,
  "edia": 2102,
  "edias": 34710,
  "edic": 33004,
  "ediciÃ³n": 49626,
  "edicto": 17409,
  "edine": 45308,
  "edio": 12042,
  "edios": 29220,
  "ediÃ³": 43807,
  "edo": 17034,
  "edonia": 33480,
  "edor": 2278,
  "edora": 10885,
  "edoras": 27762,
  "edores": 3287,
  "edos": 12008,
  "edr": 21649,
  "edra": 4368,
  "edras": 11714,
  "edre": 47555,
  "edrez": 18777,
  "eds": 21377,
  "edu": 39807,
  "educ": 24198,
  "educa": 24581,
  "educacion": 47600,
  "educaciÃ³n": 38696,
  "ee": 4324,
  "eee": 49208,
  "eeee": 20783,
  "eeeeeeee": 47992,
  "eek": 18104,
  "ef": 1049,
  "efe": 38232,
  "efecto": 33058,
  "efica": 25618,
  "efici": 16335,
  "eficiente": 27481,
  "eficientes": 44516,
  "efin": 9649,
  "eg": 632,
  "ega": 4169,
  "egaciÃ³n": 13168,
  "egado": 28574,
  "egal": 18702,
  "egan": 17845,
  "egar": 40427,
  "egas": 6086,
  "egel": 36760,
  "egem": 19260,
  "egger": 47946,
  "egi": 43311,
  "ego": 8952,
  "egos": 14631,
  "egr": 8060,
  "egra": 33229,
  "egrad": 45699,
  "egre": 24142,
  "egro": 20417,
  "egu": 21341,
  "egur": 41148,
  "eh": 20139,
  "ei": 23478,
  "eira": 20960,
  "eiro": 28250,
  "eis": 8650,
  "ej": 9491,
  "eja": 7148,
  "ejar": 36784,
  "ejas": 10456,
  "eje": 28907,
  "ejil": 31268,
  "ejo": 10140,
  "ejos": 21052,
  "ek": 15340,
  "el": 436,
  "ela": 3122,
  "elaciÃ³n": 11630,
  "elada": 39842,
  "eladas": 10114,
  "elamente": 26037,
  "elance": 43098,
  "eland": 34252,
  "elas": 3585,
  "elberg": 37454,
  "elconfidencial": 40454,
  "eldiario": 16345,
  "ele": 1044,
  "elec": 13886,
  "elecciones": 30935,
  "electoral": 38734,
  "eler": 7236,
  "eles": 5154,
  "elespanol": 30547,
  "eli": 27082,
  "elia": 16773,
  "elina": 49153,
  "eling": 43264,
  "elio": 40066,
  "ell": 1537,
  "ella": 3966,
  "ellado": 27827,
  "ellas": 24344,
  "elle": 14611,
  "eller": 11833,
  "ellera": 16636,
  "ellers": 22865,
  "elles": 16286,
  "elli": 17579,
  "ello": 5166,
  "ellos": 15599,
  "elloso": 30569,
  "ells": 25067,
  "elly": 24912,
  "ellÃ¡n": 39894,
  "ellÃ³": 36056,
  "ellÃŃn": 26289,
  "elmundo": 45128,
  "elo": 1901,
  "elos": 2989,
  "elpais": 38131,
  "elperio": 42786,
  "elperiodico": 49624,
  "elprogram": 48335,
  "elprogramadear": 49330,
  "els": 21667,
  "elsea": 17859,
  "elu": 26621,
  "elud": 21848,
  "ely": 48700,
  "elÃ©ctr": 26039,
  "em": 411,
  "ema": 2892,
  "email": 32474,
  "eman": 25953,
  "emar": 27752,
  "emas": 6021,
  "emato": 9646,
  "embar": 50226,
  "ember": 49541,
  "emble": 45617,
  "embol": 18619,
  "embre": 1222,
  "eme": 13558,
  "emen": 7196,
  "emens": 24241,
  "ement": 15539,
  "emente": 7504,
  "emento": 20404,
  "emes": 26735,
  "emet": 29590,
  "emi": 18652,
  "emia": 5524,
  "emias": 22092,
  "emin": 14306,
  "eminismo": 42700,
  "eminista": 28180,
  "emiro": 41469,
  "emis": 39111,
  "emn": 8551,
  "emo": 14307,
  "emon": 28586,
  "emor": 2606,
  "emora": 12128,
  "emoria": 3882,
  "emos": 576,
  "emp": 813,
  "emphis": 49395,
  "empl": 6299,
  "emplar": 46376,
  "emple": 40209,
  "empleo": 21161,
  "emplo": 23745,
  "emplos": 40640,
  "empo": 8339,
  "empos": 26721,
  "empozuelos": 48570,
  "empre": 1106,
  "emprend": 40638,
  "empres": 18001,
  "empresa": 35339,
  "empresas": 29894,
  "ems": 14764,
  "emv": 43991,
  "emy": 22341,
  "emÃ¡s": 961,
  "emÃ©r": 28024,
  "emÃ©rita": 36359,
  "emÃŃ": 41400,
  "en": 317,
  "ena": 685,
  "enado": 5086,
  "enaje": 4848,
  "enal": 19914,
  "enan": 25518,
  "enar": 5243,
  "enas": 2205,
  "enazgo": 40109,
  "enberg": 46232,
  "ence": 9760,
  "encef": 48011,
  "ences": 40431,
  "enci": 1693,
  "encia": 552,
  "enciaciÃ³n": 48806,
  "enciada": 24090,
  "enciado": 11519,
  "enciados": 45231,
  "encial": 3631,
  "enciales": 6580,
  "encialidad": 20299,
  "enciana": 4920,
  "enciar": 18724,
  "encias": 1557,
  "encio": 20522,
  "enco": 21578,
  "end": 546,
  "enda": 2273,
  "endaciones": 8569,
  "endan": 24003,
  "endar": 30396,
  "endario": 6120,
  "endarios": 36474,
  "endas": 3597,
  "ende": 3564,
  "enden": 7282,
  "ender": 8449,
  "endes": 28195,
  "endi": 18872,
  "ending": 45496,
  "endio": 36806,
  "endo": 1000,
  "endodo": 44277,
  "endor": 17613,
  "endos": 21092,
  "endum": 31015,
  "endÃŃa": 44509,
  "ene": 1686,
  "enea": 42851,
  "eneal": 24437,
  "eneas": 45857,
  "ener": 752,
  "enera": 27048,
  "eneraciÃ³n": 35513,
  "enero": 44535,
  "enes": 14493,
  "enet": 44254,
  "eng": 24017,
  "enga": 30760,
  "engibre": 49223,
  "engo": 26600,
  "engoa": 34557,
  "enia": 42804,
  "enio": 26679,
  "enita": 42651,
  "enix": 35855,
  "enlace": 46939,
  "enn": 33767,
  "eno": 1108,
  "enoa": 43672,
  "enofobia": 31486,
  "enos": 3127,
  "enov": 18028,
  "ens": 592,
  "ensa": 1406,
  "ensas": 21973,
  "ense": 2560,
  "enses": 6367,
  "ensible": 17325,
  "ensiones": 8791,
  "ensis": 46719,
  "ensiÃ³n": 4495,
  "enso": 3145,
  "enson": 36016,
  "ensor": 16281,
  "ensos": 29792,
  "enstein": 34185,
  "ent": 1506,
  "enta": 568,
  "entaba": 30157,
  "entable": 18698,
  "entablemente": 26555,
  "entaciÃ³n": 1541,
  "entada": 27020,
  "entadas": 15074,
  "entado": 14690,
  "entador": 34403,
  "entadores": 48192,
  "entados": 45182,
  "ental": 2710,
  "entales": 4929,
  "entamiento": 11872,
  "entamos": 30855,
  "entan": 25782,
  "entando": 32919,
  "entar": 748,
  "entaria": 17466,
  "entario": 15808,
  "entarios": 6627,
  "entarse": 41333,
  "entas": 11987,
  "ente": 413,
  "entel": 48756,
  "entemente": 3275,
  "entera": 24156,
  "entes": 670,
  "enti": 771,
  "entia": 37839,
  "entido": 17791,
  "entimiento": 23903,
  "entina": 17960,
  "entino": 12297,
  "entir": 19989,
  "entis": 3896,
  "entismo": 30004,
  "entista": 19688,
  "entistas": 29052,
  "ento": 651,
  "entos": 1011,
  "entosa": 49773,
  "entr": 45407,
  "entre": 10749,
  "entro": 4548,
  "ents": 29318,
  "entz": 46569,
  "entÃ¡ndose": 42507,
  "entÃ³": 40040,
  "entÃ³n": 36600,
  "entÃŃ": 47402,
  "entÃŃa": 18300,
  "entÃŃn": 17364,
  "enz": 7675,
  "enza": 8324,
  "enzo": 8620,
  "enzuela": 47980,
  "enÃ§": 39163,
  "eo": 785,
  "eople": 35891,
  "eos": 2581,
  "eot": 26625,
  "ep": 1036,
  "epend": 1827,
  "epes": 40658,
  "epic": 40090,
  "epor": 39160,
  "eporte": 28746,
  "eportes": 45112,
  "eppe": 37947,
  "eptos": 29772,
  "equi": 22729,
  "equiel": 43257,
  "equipo": 45802,
  "er": 318,
  "era": 493,
  "eraciones": 11347,
  "eraciÃ³n": 12995,
  "erador": 15611,
  "eradores": 47072,
  "eral": 9892,
  "erales": 14068,
  "eramente": 7929,
  "eran": 10488,
  "eras": 1645,
  "eray": 49848,
  "erciÃ³n": 25192,
  "erdo": 1410,
  "erdos": 33284,
  "ere": 22284,
  "eres": 11468,
  "erez": 14812,
  "erg": 1302,
  "erga": 42809,
  "ergas": 44329,
  "ergencia": 23726,
  "ergencias": 9022,
  "ergia": 24951,
  "ergias": 20337,
  "ergio": 50102,
  "eria": 2683,
  "erias": 36080,
  "eric": 2791,
  "erica": 13584,
  "ericord": 21744,
  "ericordia": 24756,
  "eridad": 34234,
  "erie": 24824,
  "erio": 12503,
  "eristas": 50040,
  "ermo": 43478,
  "ern": 1099,
  "erna": 16469,
  "ernal": 46923,
  "ernam": 13365,
  "ernando": 24516,
  "ernas": 22625,
  "erne": 23310,
  "ernet": 31401,
  "ernika": 29508,
  "erno": 17636,
  "ernos": 27445,
  "ero": 509,
  "eroa": 25504,
  "eron": 2374,
  "erop": 5050,
  "eros": 868,
  "erosa": 46548,
  "erosis": 25884,
  "eroso": 28373,
  "erosos": 47087,
  "erostar": 41662,
  "eroteca": 25462,
  "err": 45611,
  "erra": 2439,
  "errat": 14183,
  "erre": 44599,
  "errector": 23918,
  "erro": 28674,
  "error": 38619,
  "ers": 626,
  "erse": 7397,
  "ersiones": 3976,
  "ersiÃ³n": 1825,
  "erso": 25089,
  "ert": 16501,
  "erta": 17820,
  "erte": 4006,
  "erv": 828,
  "erva": 5866,
  "ervar": 46856,
  "ervatorio": 10264,
  "ervo": 42165,
  "erÃ¡": 4108,
  "erÃ³n": 42044,
  "erÃŃa": 1280,
  "erÃŃas": 7668,
  "es": 320,
  "esa": 2353,
  "esas": 10023,
  "esc": 13509,
  "esca": 25376,
  "esco": 18610,
  "escol": 25404,
  "escri": 47437,
  "escu": 27781,
  "escuela": 36455,
  "escuelas": 39053,
  "ese": 3374,
  "esel": 29782,
  "esen": 15680,
  "eses": 11868,
  "eseÃ±a": 44604,
  "esfuerzo": 48176,
  "esh": 18641,
  "esidad": 15959,
  "esis": 18417,
  "esiÃ³n": 1888,
  "eso": 4172,
  "esos": 6653,
  "esp": 11430,
  "espa": 17658,
  "espacial": 41885,
  "espacio": 34246,
  "espana": 17422,
  "espaÃ±ol": 26681,
  "espe": 12010,
  "espeare": 27958,
  "espec": 29706,
  "especial": 42359,
  "especialmente": 28194,
  "esper": 7255,
  "espero": 46647,
  "ess": 42288,
  "est": 6396,
  "esta": 2519,
  "estaba": 49013,
  "estable": 28587,
  "estaciÃ³n": 27488,
  "estad": 33977,
  "estado": 27794,
  "estamos": 25669,
  "estao": 46046,
  "estar": 9496,
  "estas": 6846,
  "este": 3717,
  "ester": 11779,
  "estern": 30791,
  "esterol": 22429,
  "estes": 22413,
  "esti": 699,
  "estia": 33399,
  "estico": 48625,
  "esticos": 23925,
  "estidad": 23487,
  "estilo": 48242,
  "estim": 18144,
  "estima": 16340,
  "estina": 24888,
  "estino": 20629,
  "estion": 3425,
  "estiona": 11461,
  "estiones": 4914,
  "estiv": 2734,
  "estival": 3162,
  "estiÃ³n": 1609,
  "esto": 9014,
  "estos": 27328,
  "estoy": 40657,
  "estr": 9305,
  "estra": 18194,
  "estral": 24049,
  "estrales": 42750,
  "estre": 4426,
  "estres": 29542,
  "estro": 10595,
  "estros": 22235,
  "estruc": 4057,
  "estudi": 45143,
  "estyle": 42411,
  "estÃ¡": 13819,
  "estÃ¡n": 25922,
  "esÃŃa": 7459,
  "et": 935,
  "eta": 1649,
  "etafe": 10833,
  "etal": 32958,
  "etales": 15192,
  "etario": 23590,
  "etas": 4000,
  "etc": 29054,
  "ete": 2518,
  "etel": 48464,
  "etermin": 12976,
  "etes": 24051,
  "etet": 32424,
  "eth": 13844,
  "eto": 21787,
  "ets": 8888,
  "ett": 44925,
  "etta": 22137,
  "ette": 25560,
  "ettel": 20182,
  "etti": 19994,
  "etto": 44554,
  "etts": 42050,
  "etu": 44971,
  "etx": 20372,
  "etxea": 24841,
  "ety": 23631,
  "etza": 41438,
  "etÃŃa": 33099,
  "etÃŃn": 41253,
  "eu": 15678,
  "eur": 39419,
  "euro": 13054,
  "europa": 21856,
  "europapress": 26900,
  "europe": 38502,
  "europeo": 48454,
  "eus": 13275,
  "eusk": 46609,
  "ev": 2784,
  "even": 34528,
  "evitar": 45763,
  "ew": 44377,
  "ex": 1558,
  "excel": 41910,
  "excepto": 37202,
  "exia": 42903,
  "exiÃ³n": 15830,
  "exo": 12336,
  "exp": 50174,
  "exper": 28838,
  "expl": 36114,
  "explo": 46109,
  "exta": 30126,
  "extra": 29498,
  "extre": 26399,
  "exual": 33346,
  "exuales": 30665,
  "ey": 8351,
  "ez": 503,
  "eza": 1211,
  "ezan": 49716,
  "ezanos": 23711,
  "ezar": 39506,
  "ezas": 3718,
  "ezca": 7401,
  "ezcan": 11788,
  "ezco": 16520,
  "ezkoa": 38757,
  "ezmann": 21106,
  "ezo": 13437,
  "ezol": 9757,
  "ezos": 31666,
  "eztu": 41036,
  "ezuela": 6316,
  "eÃ±a": 5077,
  "eÃ±afiel": 33003,
  "eÃ±as": 21489,
  "eÃ±o": 5220,
  "eÃ±os": 24961,
  "f": 123,
  "fa": 1968,
  "fab": 48596,
  "fac": 13098,
  "face": 40953,
  "facebook": 22376,
  "facil": 42805,
  "fago": 48943,
  "fair": 41234,
  "fal": 7361,
  "falta": 25052,
  "fam": 27389,
  "famil": 25190,
  "familia": 46279,
  "fan": 13420,
  "fana": 46153,
  "fano": 30553,
  "fantas": 47441,
  "far": 14314,
  "fard": 42776,
  "farma": 40441,
  "farro": 22159,
  "farroa": 36505,
  "fas": 8807,
  "fasis": 22825,
  "fast": 40562,
  "fatas": 36311,
  "fato": 27626,
  "favor": 29518,
  "fb": 27678,
  "fe": 2905,
  "fec": 853,
  "fecciones": 43899,
  "fecciÃ³n": 24284,
  "fecta": 35665,
  "fecto": 16717,
  "fectos": 22321,
  "fel": 15156,
  "feld": 40339,
  "feliz": 47503,
  "fen": 39505,
  "feo": 12530,
  "feos": 25417,
  "fer": 1238,
  "fera": 8664,
  "feras": 20494,
  "ferencia": 5654,
  "ferencias": 17164,
  "ferm": 10598,
  "fermin": 20830,
  "fermines": 23143,
  "ferrad": 44425,
  "ferrada": 19307,
  "ferradina": 46167,
  "fes": 3599,
  "fest": 46272,
  "festival": 49050,
  "fet": 33870,
  "ff": 3825,
  "ffa": 45837,
  "ffe": 34161,
  "ffet": 28564,
  "fff": 48175,
  "ffff": 38882,
  "ffiti": 35105,
  "fh": 40941,
  "fi": 6409,
  "fia": 9753,
  "fib": 30303,
  "fic": 37963,
  "fica": 3021,
  "ficamente": 49896,
  "ficas": 13605,
  "ficciÃ³n": 40577,
  "fici": 1289,
  "ficial": 8217,
  "ficiales": 16316,
  "ficialmente": 46737,
  "ficie": 36014,
  "ficiencia": 29418,
  "ficiente": 34662,
  "ficit": 7850,
  "ficits": 49571,
  "fico": 5232,
  "ficos": 10210,
  "fiel": 12911,
  "field": 19602,
  "fijo": 40773,
  "fil": 3411,
  "file": 32925,
  "filia": 31004,
  "filos": 34104,
  "filosofia": 48539,
  "fin": 8186,
  "financi": 12735,
  "fines": 38609,
  "fis": 38872,
  "fit": 36112,
  "fite": 41815,
  "fiteatro": 45838,
  "fitr": 17665,
  "fix": 18362,
  "fl": 10230,
  "fla": 35373,
  "flex": 33960,
  "flix": 15544,
  "flo": 32418,
  "flor": 30504,
  "flores": 31875,
  "flu": 33439,
  "fly": 47232,
  "fm": 44750,
  "fo": 2159,
  "fob": 9029,
  "fobia": 13756,
  "fol": 17193,
  "folio": 34640,
  "fon": 20285,
  "fondo": 30521,
  "fono": 13161,
  "fonos": 20564,
  "fonÃŃa": 22448,
  "for": 11702,
  "ford": 13150,
  "form": 1702,
  "forma": 2598,
  "formaciÃ³n": 3125,
  "formance": 26588,
  "formar": 36944,
  "formas": 6816,
  "forme": 20241,
  "foro": 26059,
  "fort": 28522,
  "forte": 23792,
  "fos": 10968,
  "foto": 23532,
  "fotos": 42721,
  "four": 23823,
  "fox": 18523,
  "fr": 1330,
  "fra": 8059,
  "frad": 10726,
  "frade": 43816,
  "fradÃŃa": 16418,
  "fradÃŃas": 22001,
  "frag": 44985,
  "fran": 9750,
  "franca": 17621,
  "fre": 4457,
  "fredo": 11824,
  "fren": 26862,
  "frenia": 45895,
  "frente": 26683,
  "fres": 43808,
  "frey": 48620,
  "fri": 20983,
  "frica": 6196,
  "frigor": 35354,
  "frigorificos": 35828,
  "fron": 19376,
  "fronter": 34304,
  "fru": 1717,
  "frÃ¡n": 46798,
  "frÃŃo": 39252,
  "fs": 24837,
  "ft": 3482,
  "fth": 49025,
  "ftware": 5471,
  "fu": 8502,
  "fue": 26837,
  "fuegos": 38275,
  "fuente": 19798,
  "fuer": 15851,
  "fuera": 36915,
  "fuerte": 38841,
  "fuerzo": 40158,
  "ful": 44297,
  "fun": 20101,
  "funciÃ³n": 39203,
  "fund": 9756,
  "fundador": 27805,
  "fundamental": 39527,
  "funding": 36175,
  "furt": 30285,
  "fus": 43811,
  "futbol": 29563,
  "futuro": 49284,
  "fÃ¡": 35697,
  "fÃ©": 7231,
  "fÃ³n": 19759,
  "fÃ³nica": 8911,
  "fÃŃa": 3724,
  "fÃŃas": 21686,
  "fÃŃn": 17801,
  "fÃŃs": 29277,
  "fÃŃsica": 25194,
  "fÃŃsico": 44420,
  "g": 124,
  "gL": 23655,
  "ga": 573,
  "gab": 31314,
  "gaba": 17940,
  "gaban": 34483,
  "gable": 25389,
  "gables": 41296,
  "gaciones": 5629,
  "gaciÃ³n": 4219,
  "gad": 23192,
  "gada": 3656,
  "gadas": 7499,
  "gado": 1445,
  "gador": 13190,
  "gadora": 48212,
  "gadores": 10858,
  "gados": 5071,
  "gae": 31002,
  "gal": 4202,
  "gala": 44963,
  "gales": 32328,
  "galicia": 42313,
  "gall": 26954,
  "gallo": 25706,
  "gam": 17490,
  "game": 37651,
  "gamos": 6220,
  "gan": 762,
  "gana": 33599,
  "gancia": 23987,
  "gancias": 50239,
  "ganda": 9746,
  "gando": 7800,
  "ganes": 39542,
  "gano": 6288,
  "ganos": 7508,
  "ganta": 22113,
  "gante": 18693,
  "gantes": 16582,
  "ganti": 45229,
  "ganza": 48915,
  "ganzuela": 47113,
  "gar": 608,
  "gara": 22437,
  "garan": 26685,
  "garantizar": 47805,
  "garcÃŃa": 26221,
  "gard": 48101,
  "gares": 38539,
  "garia": 24926,
  "garo": 25334,
  "garon": 11793,
  "garra": 33600,
  "garse": 9552,
  "gart": 39114,
  "garte": 39808,
  "garÃ¡": 8648,
  "gas": 1754,
  "gase": 15781,
  "gat": 13874,
  "gata": 13709,
  "gatas": 34438,
  "gate": 20908,
  "gav": 27458,
  "gaz": 16162,
  "gaza": 46629,
  "gazine": 25001,
  "gb": 50018,
  "ge": 1461,
  "geci": 12014,
  "geciras": 12520,
  "gel": 2070,
  "gela": 13781,
  "gell": 47228,
  "gelo": 43490,
  "gement": 21078,
  "gen": 854,
  "genas": 14791,
  "gencia": 11576,
  "gencias": 4576,
  "genda": 6349,
  "gener": 13852,
  "genera": 24164,
  "generacional": 44493,
  "general": 46791,
  "genes": 2536,
  "genier": 4229,
  "genierÃŃa": 31781,
  "geno": 9246,
  "genos": 20173,
  "gente": 14776,
  "gentes": 30393,
  "genti": 4005,
  "gentina": 5274,
  "gentino": 8835,
  "gento": 36038,
  "geo": 34363,
  "ger": 2284,
  "gers": 21441,
  "ges": 11162,
  "gestion": 29975,
  "gestiÃ³n": 29981,
  "get": 13777,
  "getDate": 45535,
  "getFullYear": 44864,
  "gete": 33357,
  "gets": 23351,
  "gg": 17132,
  "gged": 37489,
  "ggen": 32706,
  "gh": 30825,
  "gi": 15322,
  "gia": 8967,
  "gica": 5675,
  "gicamente": 28569,
  "gicas": 14308,
  "gico": 7334,
  "gicos": 12468,
  "gida": 38249,
  "gido": 19563,
  "gie": 42110,
  "gil": 13313,
  "giles": 22327,
  "gimen": 31078,
  "gin": 3249,
  "gina": 8431,
  "ginas": 13219,
  "ging": 33389,
  "gino": 14923,
  "gins": 49449,
  "gio": 11934,
  "gios": 26224,
  "gip": 9127,
  "gipto": 12683,
  "gir": 30843,
  "giro": 29930,
  "girola": 34053,
  "givers": 41666,
  "gl": 8859,
  "gla": 35422,
  "gle": 46086,
  "glish": 30654,
  "glo": 27631,
  "global": 47949,
  "glomer": 37907,
  "gma": 25381,
  "gn": 2505,
  "gna": 16631,
  "gne": 30151,
  "gner": 35557,
  "gno": 50221,
  "gnos": 12624,
  "gnÃ³stico": 30563,
  "go": 484,
  "gob": 18347,
  "gobern": 40524,
  "gobierno": 14388,
  "goci": 39396,
  "god": 12533,
  "godepend": 40297,
  "godÃ³n": 15900,
  "gol": 12325,
  "golpe": 29305,
  "gon": 1657,
  "gona": 8337,
  "gonal": 23403,
  "gones": 21633,
  "gono": 10290,
  "gonos": 34255,
  "goo": 18407,
  "google": 34849,
  "gor": 9383,
  "gora": 26942,
  "gore": 40580,
  "gorit": 17973,
  "gos": 1002,
  "gosa": 47707,
  "gosfera": 40818,
  "goso": 42741,
  "gosto": 3266,
  "got": 40191,
  "gotÃ¡": 26496,
  "govi": 22349,
  "govia": 7967,
  "gow": 44085,
  "goÃ±a": 18384,
  "gr": 605,
  "gra": 1399,
  "graciadamente": 32204,
  "gracias": 21191,
  "grad": 10506,
  "grada": 12860,
  "grado": 7767,
  "grados": 14744,
  "graf": 1814,
  "grafa": 32991,
  "grafia": 11086,
  "grafias": 24151,
  "grafo": 35481,
  "grafos": 44840,
  "grafÃŃa": 3432,
  "grafÃŃas": 17803,
  "gram": 4607,
  "grama": 5022,
  "gramas": 19616,
  "gramos": 27350,
  "gran": 5357,
  "grand": 22659,
  "grande": 29739,
  "grandes": 32294,
  "grante": 31937,
  "graph": 46727,
  "gras": 12121,
  "gratis": 47186,
  "grav": 44451,
  "grave": 40877,
  "gre": 3804,
  "greb": 27022,
  "greg": 18149,
  "gregaciÃ³n": 41820,
  "gres": 1126,
  "greso": 1898,
  "gresos": 10126,
  "gress": 28545,
  "gri": 43533,
  "grima": 39127,
  "grimas": 13380,
  "gro": 11582,
  "gros": 7727,
  "grosa": 33871,
  "ground": 33888,
  "gru": 13946,
  "grupo": 20963,
  "grupos": 46439,
  "grÃ¡f": 2997,
  "grÃ¡fica": 6065,
  "grÃ¡ficamente": 45323,
  "grÃ¡ficas": 11365,
  "grÃ¡fico": 6341,
  "grÃ¡ficos": 12323,
  "grÃŃa": 6303,
  "gs": 6226,
  "gt": 33562,
  "gu": 510,
  "gua": 1323,
  "guaje": 38147,
  "guar": 15444,
  "guara": 49902,
  "guard": 19290,
  "guarda": 40293,
  "guardar": 30782,
  "guardia": 8285,
  "guardiacivil": 44997,
  "guardias": 48006,
  "guardo": 47596,
  "guas": 11610,
  "guay": 11357,
  "guda": 47070,
  "gue": 1993,
  "guen": 7216,
  "guenos": 18580,
  "guenza": 34628,
  "guer": 12454,
  "guera": 11473,
  "gueras": 24899,
  "guero": 13733,
  "gueros": 32419,
  "guerra": 19577,
  "gues": 6978,
  "guesa": 13976,
  "guesas": 26499,
  "gueses": 22691,
  "guez": 3475,
  "gui": 8227,
  "guien": 3044,
  "guila": 21801,
  "guilas": 28230,
  "guillo": 48747,
  "guin": 26956,
  "guirre": 43669,
  "guista": 36857,
  "guistas": 48356,
  "guita": 20228,
  "guitas": 25682,
  "gul": 4232,
  "gula": 44485,
  "gulares": 17929,
  "gullo": 17871,
  "gulo": 12590,
  "gulos": 27672,
  "gum": 24846,
  "gun": 582,
  "guna": 7739,
  "gunas": 19523,
  "guno": 23476,
  "gunos": 23230,
  "guo": 15795,
  "gur": 1070,
  "gura": 15715,
  "guren": 25205,
  "guro": 38277,
  "guros": 32982,
  "guruza": 27860,
  "gus": 5256,
  "gusia": 33971,
  "gusto": 18786,
  "guÃ©": 14586,
  "guÃ©s": 10335,
  "guÃŃa": 36211,
  "gy": 20821,
  "gÃ¡is": 22470,
  "gÃ¡ndose": 47691,
  "gÃ¡nica": 8050,
  "gÃ©n": 16404,
  "gÃ©nero": 39169,
  "gÃ©s": 46261,
  "gÃ³": 7139,
  "gÃ³n": 10069,
  "gÃº": 26701,
  "gÃºn": 892,
  "gÃ¼": 4752,
  "gÃ¼e": 33245,
  "gÃ¼en": 35081,
  "gÃ¼enza": 10065,
  "gÃ¼enzas": 41163,
  "gÃ¼es": 45445,
  "gÃ¼esa": 28197,
  "gÃ¼Ã©s": 48326,
  "gÃŃa": 17770,
  "h": 125,
  "ha": 1471,
  "hab": 4334,
  "habi": 35655,
  "habil": 6166,
  "habilitaciÃ³n": 7764,
  "habilitado": 23938,
  "habrÃ¡": 46663,
  "habÃŃa": 47721,
  "hac": 47313,
  "hace": 22231,
  "hacer": 11808,
  "haciendo": 49565,
  "hael": 9487,
  "hai": 24988,
  "hal": 14709,
  "ham": 6133,
  "hama": 19791,
  "hambra": 23523,
  "han": 6830,
  "hanna": 42810,
  "hans": 43055,
  "har": 15013,
  "hara": 11079,
  "hard": 23834,
  "hari": 25651,
  "has": 34647,
  "hasta": 13127,
  "hat": 8581,
  "hats": 14518,
  "hatsApp": 15195,
  "hattan": 31056,
  "haur": 35923,
  "haus": 10550,
  "hausen": 47469,
  "haw": 46357,
  "hay": 10121,
  "haz": 48769,
  "he": 1851,
  "head": 35433,
  "hecho": 25285,
  "heim": 11997,
  "heimer": 16488,
  "hel": 19687,
  "hem": 28774,
  "hemos": 32263,
  "hen": 18779,
  "henda": 16585,
  "hendakari": 17290,
  "her": 3661,
  "here": 35151,
  "hes": 14385,
  "hesa": 29376,
  "hesiÃ³n": 11653,
  "hh": 11844,
  "hhh": 46674,
  "hhhh": 30119,
  "hi": 7624,
  "hib": 1703,
  "hiba": 29657,
  "hidra": 33415,
  "hidratos": 40416,
  "hijo": 50114,
  "hil": 49105,
  "him": 36843,
  "hima": 38837,
  "hin": 43919,
  "hing": 33090,
  "hini": 47795,
  "hip": 28282,
  "his": 7772,
  "hisky": 39676,
  "historia": 18634,
  "hl": 23932,
  "hm": 32602,
  "hman": 40921,
  "hn": 5258,
  "ho": 1336,
  "hogar": 36745,
  "hol": 6651,
  "hola": 45124,
  "hom": 23783,
  "hombre": 32792,
  "hombres": 45767,
  "home": 40074,
  "hon": 25851,
  "honda": 17604,
  "hoo": 17224,
  "hop": 11314,
  "hor": 7082,
  "hora": 7790,
  "horabuena": 9636,
  "horas": 24637,
  "horia": 34370,
  "horias": 48003,
  "horra": 17503,
  "hos": 15557,
  "hospital": 47495,
  "host": 41238,
  "hot": 41345,
  "hotel": 31381,
  "hou": 29565,
  "house": 18044,
  "hout": 28296,
  "hov": 40607,
  "hoven": 33378,
  "how": 9172,
  "hoy": 12782,
  "hq": 48304,
  "hr": 14109,
  "hs": 39565,
  "ht": 2616,
  "htm": 32615,
  "html": 5236,
  "http": 3526,
  "https": 6015,
  "hu": 6344,
  "hua": 26331,
  "huana": 16699,
  "hue": 38235,
  "huela": 15620,
  "hum": 9282,
  "human": 41439,
  "hy": 32028,
  "hz": 47789,
  "hÃ¡i": 45792,
  "hÃ©": 40635,
  "hÃ©imer": 47392,
  "hÃ©ro": 20601,
  "hÃ³l": 23184,
  "hÃŃ": 12377,
  "hÃŃa": 14811,
  "i": 126,
  "iA": 46751,
  "ia": 416,
  "iable": 23640,
  "iaciÃ³n": 8706,
  "iacos": 40476,
  "iacute": 33882,
  "iada": 7639,
  "iadas": 8881,
  "iado": 2582,
  "iados": 4287,
  "iaga": 26844,
  "iago": 36545,
  "iain": 46257,
  "iak": 41741,
  "ial": 1171,
  "iales": 3880,
  "ialis": 34856,
  "ials": 42374,
  "iam": 8334,
  "iamente": 8309,
  "iamos": 22833,
  "ian": 3484,
  "iana": 4834,
  "ianas": 15664,
  "iance": 35499,
  "iando": 29253,
  "iang": 38610,
  "iani": 42138,
  "iano": 2595,
  "ianos": 9709,
  "iante": 11629,
  "iantes": 29536,
  "ianual": 47148,
  "ianza": 3345,
  "ianzas": 17554,
  "iar": 1855,
  "iares": 4654,
  "iario": 40039,
  "iarse": 21957,
  "ias": 665,
  "iat": 14777,
  "iata": 32460,
  "iatlÃ³n": 29688,
  "iato": 44986,
  "ib": 452,
  "iba": 17421,
  "ibai": 47124,
  "ibal": 37513,
  "ibar": 8327,
  "ibe": 12526,
  "ibel": 25699,
  "iber": 5135,
  "ibera": 15593,
  "ibern": 33510,
  "ibes": 31141,
  "ibil": 7667,
  "ibilidad": 1661,
  "ibilidades": 29933,
  "ibio": 40186,
  "ibiza": 45277,
  "iblan": 11881,
  "ible": 921,
  "iblemente": 9612,
  "ibles": 1941,
  "iblio": 3112,
  "iblioteca": 4660,
  "ibo": 34243,
  "ibol": 34795,
  "ibor": 26189,
  "ibre": 12697,
  "ibril": 49666,
  "ibros": 49636,
  "ibu": 1749,
  "ibuciÃ³n": 1953,
  "ibus": 41879,
  "ibuy": 5766,
  "ibuye": 8772,
  "ic": 358,
  "ica": 474,
  "icaba": 20013,
  "icaban": 39688,
  "icable": 22999,
  "icables": 37622,
  "icacion": 38175,
  "icaciones": 1466,
  "icaciÃ³n": 787,
  "icada": 3613,
  "icadas": 6765,
  "icado": 990,
  "icador": 28355,
  "icadores": 44279,
  "icados": 3941,
  "icaja": 16450,
  "ical": 3300,
  "icales": 6381,
  "icam": 35064,
  "icamente": 2306,
  "icamos": 23703,
  "ican": 3549,
  "icana": 7342,
  "icanas": 21437,
  "icando": 12987,
  "icano": 6198,
  "icanos": 8886,
  "icante": 3517,
  "icantes": 7986,
  "icap": 42916,
  "icar": 1119,
  "icara": 17492,
  "icaragua": 23138,
  "icardo": 9910,
  "icarlÃ³": 32061,
  "icaron": 20130,
  "icarse": 13891,
  "icarÃ¡": 15791,
  "icas": 849,
  "icase": 45349,
  "icatura": 47981,
  "icciones": 8601,
  "icciÃ³n": 5281,
  "ice": 2020,
  "icef": 35931,
  "icel": 46010,
  "icemos": 35315,
  "icen": 6458,
  "icencia": 38628,
  "icentenario": 36621,
  "icepres": 4613,
  "icer": 43684,
  "icero": 42257,
  "iceros": 39199,
  "ices": 4225,
  "icester": 43989,
  "ich": 1987,
  "icha": 7662,
  "ichas": 21175,
  "iche": 28908,
  "ichel": 43488,
  "ichi": 24771,
  "icho": 8427,
  "ichos": 16897,
  "ici": 447,
  "icia": 1451,
  "iciada": 47390,
  "iciado": 25933,
  "iciados": 45271,
  "icial": 1694,
  "iciales": 5579,
  "iciar": 31225,
  "icias": 9926,
  "icic": 28369,
  "iciclo": 27517,
  "icida": 35948,
  "icidad": 2183,
  "icidades": 15488,
  "icidas": 38506,
  "icidio": 38091,
  "iciembre": 14446,
  "icil": 16298,
  "icilia": 30509,
  "icin": 6865,
  "icina": 5951,
  "icinas": 33749,
  "icio": 800,
  "icion": 17530,
  "iciones": 7950,
  "icios": 957,
  "iciosa": 10472,
  "iciosas": 24885,
  "icioso": 10518,
  "iciosos": 18225,
  "icip": 1365,
  "icis": 11709,
  "icismo": 18748,
  "icista": 27689,
  "icistas": 21623,
  "icius": 38922,
  "iciÃ³n": 806,
  "ick": 3589,
  "ickr": 27377,
  "icks": 38256,
  "icl": 38148,
  "ico": 516,
  "icol": 7581,
  "icolaje": 42783,
  "icolav": 40069,
  "icolor": 39522,
  "icom": 29468,
  "icon": 19429,
  "icona": 27531,
  "icorn": 33764,
  "icornio": 41326,
  "icos": 737,
  "icr": 45290,
  "ics": 9283,
  "icsson": 44430,
  "icto": 13176,
  "ictos": 48327,
  "icu": 38657,
  "icul": 2115,
  "icula": 15220,
  "icular": 19367,
  "iculares": 18797,
  "iculas": 23003,
  "iculo": 33048,
  "iculos": 39020,
  "icultad": 42218,
  "icultores": 37703,
  "icultura": 5772,
  "iculum": 28029,
  "icura": 40538,
  "icÃ©": 40091,
  "icÃ³": 3778,
  "icÃ³n": 42573,
  "icÃ³p": 12980,
  "icÃŃa": 2303,
  "id": 353,
  "ida": 541,
  "idable": 11489,
  "idables": 25985,
  "idaciones": 31820,
  "idaciÃ³n": 7104,
  "idad": 426,
  "idada": 18369,
  "idadas": 26502,
  "idades": 820,
  "idado": 4098,
  "idados": 15502,
  "idal": 8682,
  "idalgo": 19801,
  "idamente": 4784,
  "idan": 28109,
  "idane": 11502,
  "idar": 2965,
  "idaridad": 7021,
  "idas": 969,
  "idasoa": 32202,
  "iday": 23035,
  "ide": 1519,
  "idea": 33956,
  "idel": 9201,
  "iden": 9475,
  "idencia": 4472,
  "idencial": 10086,
  "idencias": 37705,
  "ident": 17518,
  "identa": 7488,
  "idente": 1057,
  "identemente": 21669,
  "identes": 13783,
  "identi": 42963,
  "ideo": 2885,
  "ideos": 6610,
  "ideportivo": 17990,
  "ider": 7703,
  "idera": 18072,
  "idero": 29612,
  "ides": 9356,
  "idez": 5334,
  "idge": 16494,
  "idi": 11694,
  "idia": 12287,
  "idimens": 32580,
  "idio": 19419,
  "idirec": 45311,
  "idis": 29682,
  "idiÃ³": 22147,
  "ido": 475,
  "idona": 27710,
  "idor": 3817,
  "idora": 13741,
  "idores": 3278,
  "idorm": 18620,
  "idos": 746,
  "idra": 12989,
  "idro": 11593,
  "ids": 33551,
  "idurÃŃa": 18265,
  "idÃ¡": 40548,
  "idÃ¡c": 10944,
  "idÃ³": 17504,
  "idÃ³n": 29854,
  "ie": 655,
  "ieblas": 40430,
  "iebre": 17094,
  "iedad": 10270,
  "iedo": 3306,
  "ieg": 8119,
  "iega": 11570,
  "iegan": 39428,
  "iego": 3953,
  "iegos": 15397,
  "iegue": 14037,
  "iegues": 45828,
  "iel": 3755,
  "iela": 18135,
  "ield": 44476,
  "iele": 34823,
  "ielha": 35581,
  "ielo": 5205,
  "iem": 40344,
  "ien": 385,
  "iena": 18669,
  "ience": 31461,
  "iencia": 1324,
  "iencias": 3236,
  "iend": 16845,
  "ienda": 2350,
  "iendan": 19237,
  "iendas": 3154,
  "iende": 31438,
  "iendo": 780,
  "iends": 39248,
  "iene": 1994,
  "ienen": 5107,
  "ienes": 6835,
  "iense": 11977,
  "ienses": 26708,
  "ient": 2379,
  "ienta": 6624,
  "ientaciÃ³n": 23356,
  "iental": 4250,
  "ientales": 8280,
  "ientan": 31610,
  "ientas": 26050,
  "iente": 807,
  "ienten": 26599,
  "ientes": 1100,
  "iento": 523,
  "ientos": 1083,
  "ientras": 1438,
  "ientu": 46011,
  "ientÃŃf": 2988,
  "ier": 437,
  "iera": 1755,
  "ieran": 3916,
  "ieras": 14329,
  "iere": 3771,
  "ieren": 7722,
  "ieres": 4656,
  "iernes": 2305,
  "ierno": 5437,
  "iernos": 36395,
  "iero": 5506,
  "ieron": 1288,
  "ierra": 3276,
  "ierras": 21899,
  "ierre": 14436,
  "ierro": 13719,
  "iers": 25047,
  "ierta": 7404,
  "iertan": 20240,
  "iertas": 23607,
  "ierte": 3910,
  "ierten": 8345,
  "ierto": 7382,
  "iertos": 27249,
  "ies": 929,
  "iesa": 9670,
  "iesan": 28905,
  "iese": 8900,
  "iesen": 16961,
  "ieso": 29049,
  "iesta": 2633,
  "iestas": 3859,
  "iesto": 19062,
  "ieta": 12990,
  "ietas": 43168,
  "iete": 11366,
  "ieu": 43007,
  "iev": 26147,
  "ieve": 14526,
  "ieves": 28712,
  "iew": 32783,
  "if": 518,
  "ifa": 12863,
  "ifas": 26051,
  "ifato": 44753,
  "ife": 4724,
  "ifer": 7055,
  "iff": 19878,
  "ifi": 15301,
  "ific": 2198,
  "ifica": 2527,
  "ificacin": 37746,
  "ificacion": 41641,
  "ificaciones": 6224,
  "ificaciÃ³n": 2173,
  "ificada": 9824,
  "ificadas": 22499,
  "ificado": 4266,
  "ificador": 22941,
  "ificadores": 32258,
  "ificados": 4953,
  "ifican": 13849,
  "ificando": 24823,
  "ificante": 33780,
  "ificar": 3614,
  "ificarse": 46413,
  "ificarÃ¡": 44707,
  "ificio": 10164,
  "ificios": 20497,
  "ifico": 30545,
  "ificos": 13780,
  "ificÃ³": 31059,
  "ifin": 9107,
  "ifique": 18581,
  "ifiquen": 38977,
  "iforn": 10739,
  "ifornia": 12160,
  "ift": 19415,
  "ifu": 10783,
  "ifuentes": 11616,
  "ifusiÃ³n": 3195,
  "ify": 33820,
  "ig": 420,
  "iga": 1576,
  "igada": 16332,
  "igadas": 28754,
  "igado": 34481,
  "igal": 24535,
  "igan": 11001,
  "igar": 23679,
  "igas": 8409,
  "ige": 11021,
  "igen": 11142,
  "igencia": 46581,
  "iger": 15871,
  "igh": 10665,
  "ight": 9451,
  "ighter": 39690,
  "ights": 26918,
  "igi": 39046,
  "igil": 16465,
  "igilancia": 20747,
  "igital": 22410,
  "igles": 4747,
  "iglesias": 42615,
  "igma": 16426,
  "ign": 2362,
  "igna": 5593,
  "ignacio": 48049,
  "ignaciÃ³n": 40674,
  "igne": 27914,
  "ignidad": 36064,
  "ignifica": 46124,
  "igno": 23266,
  "ignon": 44013,
  "igo": 1284,
  "igor": 12640,
  "igos": 2384,
  "igra": 23242,
  "igraciÃ³n": 22624,
  "igrafÃŃa": 40665,
  "igrama": 41880,
  "igrantes": 37686,
  "igres": 48507,
  "igu": 741,
  "igua": 26299,
  "igual": 20033,
  "igualdad": 36687,
  "iguaÃŃn": 49073,
  "igue": 3131,
  "iguel": 23270,
  "iguen": 19540,
  "iguer": 20386,
  "iguera": 23426,
  "igueres": 28234,
  "iguero": 14285,
  "igueroa": 44351,
  "iguez": 20951,
  "iguiÃ³": 39070,
  "igur": 5718,
  "igura": 3893,
  "iguraciÃ³n": 6789,
  "iguras": 8935,
  "igure": 39749,
  "iguÃ©s": 39608,
  "igÃ³n": 16675,
  "igÃ¼": 15148,
  "ih": 9148,
  "ihad": 11410,
  "ii": 7035,
  "iii": 37219,
  "iiii": 21285,
  "iiiiiiii": 48149,
  "ij": 3977,
  "ija": 12089,
  "ijan": 25208,
  "ijas": 46893,
  "iji": 32107,
  "ijo": 6811,
  "ijoo": 37900,
  "ijos": 31168,
  "ijote": 15001,
  "ijÃ³": 15597,
  "ijÃ³n": 8080,
  "ijÃ³o": 15992,
  "ik": 2225,
  "ika": 10112,
  "ikaz": 30176,
  "ikaze": 33460,
  "ike": 9119,
  "iki": 9065,
  "ikin": 40017,
  "ikipedia": 17600,
  "iko": 10274,
  "ikos": 39895,
  "iku": 44587,
  "il": 396,
  "ila": 2604,
  "ilaciÃ³n": 28514,
  "ilan": 31483,
  "ilandia": 21904,
  "ilar": 2430,
  "ilares": 5728,
  "ilas": 9669,
  "ilater": 29766,
  "ilateral": 13119,
  "ilaterales": 28652,
  "ild": 8726,
  "ilda": 48082,
  "ilde": 15015,
  "ilding": 46794,
  "ildo": 12326,
  "ile": 2733,
  "ilea": 24201,
  "ileaks": 43248,
  "ileo": 31132,
  "iler": 12304,
  "ilera": 25967,
  "ilers": 30520,
  "iles": 2915,
  "iley": 25298,
  "ili": 2118,
  "ilia": 21111,
  "iliano": 20489,
  "iliar": 12614,
  "iliares": 18274,
  "ilidad": 949,
  "ilidades": 2917,
  "ilio": 6732,
  "ilios": 21490,
  "ilip": 12301,
  "ilipol": 25857,
  "ilitado": 12243,
  "ill": 823,
  "illa": 1038,
  "illada": 28927,
  "illadas": 39340,
  "illado": 13220,
  "illados": 48112,
  "illan": 8398,
  "illant": 47018,
  "illante": 40383,
  "illar": 9132,
  "illary": 26687,
  "illas": 2440,
  "ille": 12006,
  "iller": 6641,
  "illera": 9336,
  "illeras": 39925,
  "illerato": 11988,
  "illermo": 10862,
  "illero": 20767,
  "illeros": 26766,
  "illo": 2006,
  "illon": 18533,
  "illones": 11865,
  "illos": 3198,
  "illot": 36840,
  "illy": 27759,
  "illÃ³n": 16422,
  "ilo": 2599,
  "ilos": 15560,
  "iloto": 29471,
  "ils": 14519,
  "ily": 20660,
  "ilÃ¡n": 36571,
  "im": 391,
  "ima": 1833,
  "imagen": 41582,
  "imagin": 35507,
  "imal": 42877,
  "imamente": 30110,
  "iman": 34725,
  "imar": 20736,
  "imas": 4339,
  "imb": 35550,
  "imba": 40937,
  "imburgo": 38089,
  "ime": 4428,
  "imen": 2251,
  "imenea": 18927,
  "imenez": 33347,
  "imens": 21250,
  "imenta": 39664,
  "imentaciÃ³n": 14554,
  "imental": 42356,
  "imentar": 11397,
  "imento": 13456,
  "imentos": 18843,
  "imer": 30117,
  "imes": 31489,
  "imi": 29667,
  "imia": 18447,
  "imiento": 1127,
  "imientos": 3218,
  "imin": 2180,
  "imina": 7484,
  "iminar": 19382,
  "iminares": 40300,
  "imir": 19859,
  "imiro": 43744,
  "imismo": 3369,
  "imn": 45810,
  "imnas": 10205,
  "imo": 1747,
  "imon": 2530,
  "imonio": 3142,
  "imos": 1520,
  "impor": 24579,
  "importante": 35607,
  "impres": 27339,
  "impul": 43008,
  "imÃ¡tica": 44471,
  "imÃ©nez": 43499,
  "in": 339,
  "ina": 732,
  "inaciones": 19858,
  "inaciÃ³n": 3988,
  "inada": 9916,
  "inadas": 11343,
  "inado": 5401,
  "inados": 9134,
  "inagre": 21537,
  "inal": 13956,
  "inales": 38003,
  "inamiento": 28672,
  "inan": 13031,
  "inando": 16720,
  "inar": 4226,
  "inares": 21016,
  "inaria": 6310,
  "inarias": 15655,
  "inario": 7007,
  "inarios": 14891,
  "inaron": 38107,
  "inarse": 45384,
  "inas": 1714,
  "inastÃŃa": 33537,
  "inato": 45411,
  "inazo": 34075,
  "inc": 15528,
  "incesa": 11976,
  "inch": 19395,
  "incip": 1068,
  "incl": 12037,
  "inclu": 23183,
  "incluido": 49899,
  "incluso": 27422,
  "incluyendo": 33286,
  "incre": 45599,
  "incu": 10507,
  "ind": 2548,
  "inda": 13479,
  "indad": 41907,
  "inde": 14241,
  "independ": 25338,
  "independiente": 42203,
  "index": 25736,
  "indic": 37783,
  "indign": 47331,
  "indo": 6080,
  "indows": 7421,
  "industr": 24776,
  "indÃº": 40505,
  "ine": 1149,
  "inea": 27363,
  "ineaciones": 44692,
  "inen": 50093,
  "inense": 26460,
  "ineo": 13203,
  "ineos": 16495,
  "iner": 17867,
  "inera": 28645,
  "inero": 14072,
  "ineros": 22575,
  "ines": 3672,
  "iness": 12889,
  "ineta": 46520,
  "inete": 9584,
  "inetes": 30253,
  "inex": 45400,
  "inf": 17999,
  "inflama": 42856,
  "info": 14684,
  "inform": 39707,
  "informa": 18713,
  "informacion": 21807,
  "informaciÃ³n": 38516,
  "ing": 1201,
  "inga": 46144,
  "inge": 29630,
  "ingen": 50213,
  "inger": 18759,
  "ingo": 18838,
  "ings": 10011,
  "ington": 8692,
  "ingu": 19673,
  "ingÃ¼": 7383,
  "ingÃ¼e": 40621,
  "ingÃ¼ÃŃstica": 31236,
  "inho": 12933,
  "inhoa": 33307,
  "ini": 5953,
  "inia": 36530,
  "inidad": 9652,
  "inilla": 28370,
  "ining": 42574,
  "inio": 9530,
  "inis": 44335,
  "inismo": 36191,
  "inista": 23465,
  "inistas": 41363,
  "inity": 23947,
  "ink": 14633,
  "inm": 28534,
  "ino": 951,
  "inos": 1793,
  "inosa": 9194,
  "inoso": 23408,
  "inosos": 42697,
  "ins": 3921,
  "insa": 42777,
  "instagram": 28458,
  "instal": 26270,
  "instein": 22976,
  "institu": 40103,
  "insu": 49874,
  "int": 6598,
  "inta": 7449,
  "inte": 34530,
  "intelig": 40514,
  "inten": 24802,
  "inter": 6879,
  "interes": 24574,
  "internacional": 37362,
  "interpre": 25256,
  "interrump": 23195,
  "interÃ©s": 39763,
  "intes": 49004,
  "into": 15149,
  "ints": 42453,
  "intza": 22355,
  "inv": 30552,
  "investi": 25060,
  "investidura": 50133,
  "invierno": 49950,
  "inz": 14691,
  "inzo": 31380,
  "inÃ©": 43424,
  "inÃ³": 16963,
  "io": 401,
  "ioa": 42666,
  "iod": 7380,
  "iol": 21218,
  "iola": 40710,
  "iolo": 43627,
  "iologÃŃa": 38282,
  "ion": 566,
  "iona": 7423,
  "ionada": 23442,
  "ionado": 7469,
  "ionados": 20717,
  "ionaje": 24683,
  "ional": 2450,
  "ionales": 6232,
  "ionalidad": 44520,
  "ionalmente": 35357,
  "ionante": 7865,
  "ionar": 6985,
  "ionario": 27967,
  "ionarios": 32362,
  "ione": 26441,
  "iones": 816,
  "ionismo": 26500,
  "ionista": 10689,
  "ionistas": 9631,
  "ions": 7547,
  "ior": 1332,
  "iores": 5378,
  "ios": 496,
  "iosa": 5004,
  "iosamente": 41159,
  "iosas": 8984,
  "iosco": 29604,
  "ioscos": 42713,
  "iosidad": 34971,
  "ioso": 3969,
  "iosos": 6756,
  "iota": 47061,
  "ioterapia": 18721,
  "ip": 2522,
  "ipa": 44953,
  "ipar": 43740,
  "ipe": 5175,
  "ipes": 48027,
  "ipiÃ©": 18547,
  "ipiÃ©lago": 19524,
  "iplo": 31405,
  "ipo": 35549,
  "ips": 13768,
  "ipsis": 30487,
  "ipu": 9214,
  "ipuz": 13492,
  "ipuzkoa": 13938,
  "ipÃº": 20807,
  "ipÃºzcoa": 21336,
  "ique": 3473,
  "iquen": 11869,
  "iques": 28019,
  "iquÃ©": 35133,
  "ir": 421,
  "ira": 2655,
  "irao": 48479,
  "iras": 21260,
  "ird": 32610,
  "ire": 1928,
  "iremos": 9542,
  "iren": 43595,
  "ires": 8476,
  "iri": 6281,
  "iria": 26608,
  "iriendo": 37495,
  "irieron": 47712,
  "irig": 12593,
  "irio": 40695,
  "iris": 35840,
  "iriÃ³": 15008,
  "irl": 26408,
  "irlpool": 31792,
  "irm": 1646,
  "irma": 2126,
  "irmado": 3166,
  "irman": 9358,
  "irmar": 6800,
  "irmas": 36952,
  "irme": 24973,
  "irmo": 41868,
  "iro": 3295,
  "iron": 46296,
  "iros": 18266,
  "irre": 8203,
  "irse": 2949,
  "irus": 19029,
  "irÃ¡": 2199,
  "irÃ¡n": 5554,
  "irÃ³n": 50125,
  "irÃŃa": 21629,
  "is": 356,
  "isa": 3898,
  "isada": 48612,
  "isado": 44245,
  "isario": 35940,
  "isas": 7474,
  "isca": 41406,
  "iscal": 2637,
  "iscipl": 18723,
  "isco": 10021,
  "iscos": 21583,
  "iscu": 47541,
  "ise": 10149,
  "iser": 40216,
  "ises": 23024,
  "isex": 45614,
  "isfer": 33117,
  "isferio": 36727,
  "ish": 9555,
  "ishi": 29553,
  "isi": 26253,
  "isima": 25923,
  "isimas": 41121,
  "isimo": 20309,
  "isin": 34365,
  "ising": 32019,
  "isio": 40830,
  "ision": 13992,
  "isiones": 4081,
  "isis": 1637,
  "isiÃ³n": 1391,
  "isla": 2813,
  "islaciÃ³n": 41047,
  "islatura": 49313,
  "ism": 24391,
  "isma": 19552,
  "isme": 37001,
  "ismo": 640,
  "ismos": 4218,
  "iso": 1753,
  "isole": 24510,
  "ison": 18550,
  "isos": 5997,
  "ispado": 25198,
  "ispo": 9276,
  "ispos": 19535,
  "iss": 16766,
  "issa": 13742,
  "issan": 20646,
  "isse": 48369,
  "ist": 14088,
  "ista": 639,
  "istad": 29779,
  "istan": 42309,
  "istas": 824,
  "iste": 883,
  "isteis": 42565,
  "istema": 5925,
  "istemas": 9797,
  "isten": 1223,
  "istencia": 2257,
  "istente": 8307,
  "istentes": 13678,
  "ister": 25403,
  "isteria": 10574,
  "isterio": 2556,
  "istes": 18932,
  "istic": 14877,
  "istica": 29227,
  "isticas": 28803,
  "istido": 6136,
  "istir": 4235,
  "isto": 11063,
  "istorio": 7810,
  "istr": 1014,
  "istra": 1979,
  "istribu": 27926,
  "istribuciÃ³n": 3135,
  "istro": 1936,
  "istros": 4779,
  "istÃ¡n": 14861,
  "istÃŃa": 23803,
  "it": 627,
  "ita": 733,
  "itaba": 34589,
  "itable": 12127,
  "itables": 40511,
  "itacion": 46780,
  "itaciones": 7069,
  "itaciÃ³n": 3349,
  "itacoras": 41544,
  "itad": 3783,
  "itada": 3262,
  "itadas": 8076,
  "itado": 3289,
  "itador": 33366,
  "itadores": 42302,
  "itados": 5008,
  "itae": 39477,
  "ital": 2267,
  "itales": 4012,
  "itamente": 18744,
  "itamos": 5510,
  "itan": 2801,
  "itana": 15323,
  "itando": 10900,
  "itania": 41410,
  "itano": 32929,
  "itantes": 41493,
  "itar": 776,
  "itaria": 3397,
  "itariamente": 16536,
  "itarias": 6897,
  "itario": 2913,
  "itarios": 4249,
  "itarismo": 27286,
  "itarra": 28253,
  "itarse": 29620,
  "itarÃ¡": 37671,
  "itas": 2031,
  "itat": 3313,
  "itb": 15275,
  "itch": 21381,
  "ite": 2096,
  "itec": 50006,
  "ited": 35980,
  "iten": 7137,
  "itenci": 13655,
  "itencia": 34333,
  "iter": 4137,
  "itera": 20127,
  "itero": 33826,
  "iteros": 27575,
  "ites": 7782,
  "ith": 8284,
  "ithout": 29481,
  "iti": 10233,
  "itia": 21802,
  "ities": 35904,
  "itimar": 42311,
  "ition": 47561,
  "itis": 16933,
  "itiva": 10852,
  "itivas": 26759,
  "itivo": 8827,
  "itivos": 19915,
  "itle": 36118,
  "itness": 23874,
  "ito": 995,
  "itol": 45641,
  "itor": 5834,
  "itora": 40575,
  "itores": 13838,
  "itoria": 15752,
  "itorio": 7450,
  "itorios": 11260,
  "itos": 1594,
  "its": 8782,
  "itsu": 24467,
  "itsub": 32825,
  "itsubishi": 32960,
  "itt": 21931,
  "itte": 33198,
  "ittle": 27673,
  "itu": 46543,
  "itud": 7343,
  "itudes": 37197,
  "itura": 44838,
  "itx": 23884,
  "itxell": 31358,
  "ity": 4782,
  "itz": 11591,
  "itza": 26802,
  "itÃ¡n": 8746,
  "itÃ¡ndose": 49281,
  "itÃ©": 4775,
  "itÃ©s": 26450,
  "itÃ³": 6839,
  "itÃŃ": 21958,
  "itÃŃa": 16398,
  "iu": 16383,
  "iudad": 782,
  "ium": 11230,
  "iur": 23574,
  "ius": 15707,
  "iv": 461,
  "iva": 1572,
  "ivacidad": 4556,
  "ivada": 22671,
  "ivado": 20078,
  "ival": 4289,
  "ivalente": 28779,
  "ivamente": 5475,
  "ivan": 41806,
  "ivar": 26573,
  "ivari": 47571,
  "ivas": 5715,
  "ive": 5863,
  "ivel": 1550,
  "iver": 8563,
  "ivera": 17951,
  "iverpool": 17984,
  "ivers": 877,
  "iversario": 5762,
  "iversidad": 8741,
  "ives": 26943,
  "ivi": 28786,
  "ivia": 11723,
  "ivid": 3281,
  "ividad": 12199,
  "ivil": 1906,
  "ivissa": 24653,
  "ivite": 37579,
  "ivo": 2048,
  "ivol": 40446,
  "ivos": 3254,
  "iw": 21038,
  "ix": 2546,
  "ixa": 8939,
  "ixar": 36999,
  "ixart": 30655,
  "ixo": 27634,
  "ixon": 49322,
  "ixÃ³n": 42929,
  "iy": 32295,
  "iya": 48822,
  "iz": 442,
  "iza": 2185,
  "izaba": 26494,
  "izaban": 44865,
  "izable": 35603,
  "izables": 47603,
  "izacin": 22007,
  "izacion": 23756,
  "izaciones": 6417,
  "izaciÃ³n": 1139,
  "izada": 5684,
  "izadas": 10760,
  "izado": 3428,
  "izador": 14124,
  "izadora": 31347,
  "izadores": 23731,
  "izados": 7345,
  "izaje": 6045,
  "izamos": 16072,
  "izan": 7646,
  "izando": 9945,
  "izante": 21450,
  "izantes": 24542,
  "izar": 2431,
  "izares": 41392,
  "izaron": 18017,
  "izarra": 24311,
  "izarse": 16292,
  "izarÃ¡": 17709,
  "izarÃ¡n": 30694,
  "izas": 10458,
  "izca": 9895,
  "izcaya": 15644,
  "izco": 22003,
  "ize": 23837,
  "izer": 45572,
  "izka": 10423,
  "izkaia": 11287,
  "izo": 2092,
  "izola": 43797,
  "izos": 12888,
  "izquier": 2513,
  "izquierda": 26668,
  "izu": 34320,
  "izur": 36189,
  "izz": 29181,
  "izzo": 48231,
  "izÃ³": 9814,
  "iÃ¡": 14293,
  "iÃ¡n": 10372,
  "iÃ©": 43746,
  "iÃ©n": 2515,
  "iÃ©ndo": 12368,
  "iÃ©ndola": 48954,
  "iÃ©ndole": 30979,
  "iÃ©ndolo": 37291,
  "iÃ©ndonos": 36902,
  "iÃ©ndose": 9192,
  "iÃ©ndote": 31162,
  "iÃ©ramos": 21638,
  "iÃ±o": 6849,
  "iÃ±os": 14796,
  "iÃ±Ã¡n": 30964,
  "iÃ±Ã¡nigo": 32259,
  "iÃ³": 1006,
  "iÃ³n": 500,
  "iÃĥ": 27300,
  "j": 127,
  "ja": 795,
  "jaba": 21911,
  "jaban": 42501,
  "jack": 47274,
  "jada": 7533,
  "jadas": 16288,
  "jado": 4237,
  "jados": 12258,
  "jal": 3508,
  "jala": 19719,
  "jald": 39290,
  "jales": 34096,
  "jalÃ¡": 13383,
  "jam": 13609,
  "jamos": 28383,
  "jan": 5033,
  "jana": 13410,
  "jando": 13448,
  "jandro": 48276,
  "jano": 9650,
  "janos": 12088,
  "jante": 8928,
  "jantes": 20120,
  "janza": 18942,
  "jar": 2210,
  "jara": 23435,
  "jares": 38722,
  "jaron": 28248,
  "jarse": 25543,
  "jarÃ¡": 44278,
  "jas": 1750,
  "jase": 41385,
  "jate": 20921,
  "javier": 48544,
  "jc": 45360,
  "je": 716,
  "jea": 22680,
  "jec": 31778,
  "jecimiento": 40509,
  "ject": 20389,
  "jefe": 34204,
  "jeje": 20814,
  "jen": 24715,
  "jena": 31749,
  "jer": 766,
  "jera": 5157,
  "jeran": 41092,
  "jeras": 12046,
  "jeria": 32267,
  "jero": 2795,
  "jeron": 8075,
  "jeros": 3821,
  "jerÃŃa": 4383,
  "jerÃŃas": 28192,
  "jes": 2829,
  "jese": 33958,
  "jet": 46678,
  "jetivo": 22939,
  "jetivos": 34802,
  "ji": 19672,
  "jico": 41859,
  "jidad": 12566,
  "jillo": 23998,
  "jimo": 40875,
  "jita": 38668,
  "jito": 34961,
  "jitos": 45468,
  "jj": 31534,
  "jk": 50087,
  "jn": 43696,
  "jo": 739,
  "jol": 14966,
  "jon": 10646,
  "jona": 26193,
  "jones": 37104,
  "jor": 5370,
  "jord": 38644,
  "jordania": 47315,
  "jos": 1185,
  "josa": 28177,
  "joy": 27840,
  "jpg": 47611,
  "js": 44457,
  "ju": 4307,
  "juan": 34133,
  "jubil": 37596,
  "jud": 3734,
  "judicial": 32861,
  "juego": 40079,
  "juegos": 26864,
  "juelas": 36623,
  "jueves": 46293,
  "juez": 18530,
  "jug": 17552,
  "jugador": 21367,
  "juici": 22074,
  "juicio": 46180,
  "jun": 19569,
  "junta": 39318,
  "junto": 14989,
  "jur": 17151,
  "jus": 6173,
  "justicia": 38747,
  "justo": 46922,
  "juven": 26091,
  "juÃ¡n": 39480,
  "juÃ©": 50111,
  "jÃ¡car": 33412,
  "jÃ¡n": 44437,
  "jÃ³": 11478,
  "jÃ³n": 7312,
  "k": 128,
  "ka": 3007,
  "kal": 40221,
  "kan": 32163,
  "kar": 12580,
  "kara": 33998,
  "kari": 15918,
  "kas": 18878,
  "kate": 32784,
  "ke": 2834,
  "kee": 40751,
  "kei": 49921,
  "kel": 11718,
  "kele": 41362,
  "ken": 19011,
  "ker": 5132,
  "kers": 15687,
  "kes": 20514,
  "ket": 7670,
  "keting": 5207,
  "kets": 47316,
  "key": 16106,
  "kg": 30327,
  "kh": 27163,
  "ki": 4240,
  "kia": 9217,
  "kid": 39587,
  "kidetza": 42874,
  "kil": 47936,
  "kin": 10249,
  "kina": 45552,
  "king": 4962,
  "kins": 22913,
  "kinson": 28435,
  "kir": 46551,
  "kis": 11340,
  "kismet": 35868,
  "kistÃ¡n": 24531,
  "kit": 42485,
  "kk": 36640,
  "km": 21509,
  "kn": 28245,
  "knecht": 49376,
  "ko": 3606,
  "koa": 11223,
  "kok": 44057,
  "kon": 27361,
  "konen": 42974,
  "konia": 21651,
  "kor": 40351,
  "kos": 21485,
  "kov": 27722,
  "kovic": 21394,
  "kozy": 30400,
  "ks": 5798,
  "kswagen": 16801,
  "ku": 11337,
  "kul": 16689,
  "kullu": 17957,
  "kun": 25135,
  "kur": 28330,
  "kus": 38190,
  "ky": 6264,
  "l": 129,
  "la": 409,
  "lab": 34935,
  "laba": 27571,
  "labrada": 16146,
  "lace": 11198,
  "laces": 19626,
  "laciones": 4805,
  "laciÃ³n": 1268,
  "lad": 3199,
  "lada": 4995,
  "ladamente": 42474,
  "ladas": 13654,
  "lade": 36485,
  "lades": 49052,
  "lado": 1847,
  "ladolid": 5198,
  "lador": 45223,
  "ladores": 33972,
  "lados": 7696,
  "lag": 44916,
  "laga": 3396,
  "lago": 15793,
  "lagos": 27028,
  "lah": 31959,
  "lainformacion": 44086,
  "laje": 24032,
  "lam": 801,
  "lama": 24299,
  "lamar": 27524,
  "lamen": 7392,
  "lament": 7814,
  "lamentar": 3759,
  "lamentario": 14810,
  "lamente": 16746,
  "lamento": 2872,
  "lamentos": 19920,
  "lamiento": 10495,
  "lamientos": 49120,
  "lamo": 17846,
  "lamos": 8282,
  "lamour": 31005,
  "lan": 647,
  "lana": 22041,
  "lanas": 27697,
  "lanca": 27821,
  "lanco": 32724,
  "land": 5019,
  "landa": 11746,
  "landes": 33823,
  "landesa": 23576,
  "landeses": 33643,
  "landia": 11704,
  "lando": 9702,
  "landÃ©s": 17184,
  "lanes": 15126,
  "langa": 46002,
  "lano": 4050,
  "lanos": 10774,
  "lante": 29399,
  "lantes": 18312,
  "lanza": 50195,
  "lao": 48719,
  "laopinion": 22950,
  "laopiniondem": 30528,
  "laopiniondemalaga": 39629,
  "lar": 684,
  "lara": 10368,
  "lares": 3456,
  "larioja": 45424,
  "laron": 26114,
  "larse": 20946,
  "las": 620,
  "lasencia": 16922,
  "lash": 10940,
  "laska": 18663,
  "lata": 40277,
  "late": 30923,
  "laterra": 8231,
  "lav": 6927,
  "lava": 10266,
  "lavanguardia": 47322,
  "lave": 8378,
  "lavega": 13405,
  "lavero": 42811,
  "lavia": 40370,
  "lavÃ©s": 14730,
  "lay": 23611,
  "laz": 3918,
  "laza": 43937,
  "lazamiento": 16986,
  "lazo": 45665,
  "ld": 6100,
  "le": 372,
  "lea": 17486,
  "learning": 45952,
  "lec": 941,
  "lecciÃ³n": 7006,
  "lece": 14960,
  "lecen": 36905,
  "leck": 35664,
  "lecos": 38006,
  "lectual": 6084,
  "led": 16018,
  "leda": 35942,
  "ledo": 5301,
  "ledor": 48951,
  "lee": 41856,
  "leer": 9604,
  "leg": 1295,
  "legal": 35826,
  "legas": 15779,
  "lege": 28923,
  "legi": 41599,
  "legio": 5649,
  "lego": 40414,
  "leibol": 37279,
  "lejo": 41357,
  "lem": 14991,
  "lemia": 30757,
  "len": 13693,
  "lena": 32592,
  "leo": 1659,
  "leon": 43235,
  "leos": 12820,
  "lepsia": 47425,
  "ler": 2320,
  "lera": 27269,
  "lerc": 50042,
  "lero": 39540,
  "lerÃŃa": 31921,
  "les": 614,
  "lesa": 21826,
  "lesc": 6186,
  "less": 19446,
  "let": 5538,
  "leta": 4389,
  "letas": 6251,
  "letazo": 27579,
  "lete": 19264,
  "letes": 30990,
  "letismo": 15653,
  "leto": 12242,
  "letos": 14274,
  "lets": 36765,
  "lett": 35865,
  "lette": 48423,
  "letÃŃn": 6782,
  "lev": 4029,
  "levante": 26615,
  "levar": 46669,
  "levard": 24324,
  "leveland": 46362,
  "lex": 2292,
  "lexiÃ³n": 22526,
  "ley": 6575,
  "lez": 3114,
  "leza": 5747,
  "leÃ±o": 36163,
  "lf": 28149,
  "li": 6837,
  "lia": 8042,
  "lib": 16776,
  "liber": 19821,
  "libertad": 28720,
  "libre": 36459,
  "libro": 39550,
  "libros": 43387,
  "lic": 3785,
  "lica": 6268,
  "licas": 21913,
  "lich": 34305,
  "lichting": 41901,
  "lico": 10394,
  "licos": 12097,
  "lid": 4455,
  "lido": 17274,
  "lie": 19070,
  "life": 48558,
  "lig": 12931,
  "liga": 12319,
  "light": 33987,
  "lim": 15338,
  "lin": 7874,
  "lina": 27588,
  "line": 2748,
  "lines": 25475,
  "ling": 16945,
  "link": 40018,
  "links": 41576,
  "lio": 2064,
  "lip": 35992,
  "liqu": 44041,
  "lis": 30088,
  "lisis": 24557,
  "lismo": 17148,
  "list": 41872,
  "lista": 17348,
  "listas": 29942,
  "lite": 13694,
  "lites": 27096,
  "lito": 46965,
  "ll": 4793,
  "lla": 9854,
  "llam": 35008,
  "llano": 15728,
  "llas": 24426,
  "lle": 5389,
  "lleer": 9400,
  "llev": 21643,
  "llevar": 42189,
  "lli": 38762,
  "llo": 40002,
  "lls": 26988,
  "ln": 36962,
  "lo": 418,
  "load": 33040,
  "loc": 34963,
  "local": 43108,
  "lock": 25540,
  "locu": 17308,
  "lodones": 32760,
  "log": 1411,
  "loga": 23854,
  "logia": 30101,
  "logio": 48442,
  "logo": 3462,
  "logos": 11421,
  "logÃŃa": 5312,
  "logÃŃas": 13746,
  "loj": 8197,
  "lon": 21145,
  "loo": 45054,
  "look": 33801,
  "lope": 28773,
  "lopez": 49984,
  "loque": 29010,
  "lor": 1978,
  "lore": 37404,
  "loria": 9279,
  "los": 585,
  "losa": 19191,
  "losaj": 27935,
  "losiÃ³n": 39229,
  "loso": 42267,
  "lot": 18816,
  "lota": 19651,
  "lote": 41187,
  "low": 13511,
  "loween": 21459,
  "loy": 22367,
  "ls": 11190,
  "lu": 1736,
  "lucido": 24945,
  "luencia": 5699,
  "lugar": 49955,
  "luis": 45760,
  "lula": 21222,
  "lum": 10557,
  "lus": 18557,
  "lusconi": 32586,
  "luz": 46710,
  "luza": 36421,
  "lv": 1995,
  "lvora": 34020,
  "lvr": 30123,
  "ly": 3250,
  "lying": 27730,
  "lymp": 24376,
  "lyn": 34388,
  "lywood": 11747,
  "lÃ¡": 49296,
  "lÃ¡mico": 10610,
  "lÃ¡n": 9056,
  "lÃ©": 2577,
  "lÃ©s": 3707,
  "lÃ©tico": 6340,
  "lÃ©vate": 40880,
  "lÃ³": 7560,
  "lÃ³n": 12630,
  "lÃºcar": 19581,
  "lÃŃ": 24196,
  "lÃŃder": 40175,
  "lÃŃn": 8836,
  "m": 130,
  "ma": 456,
  "mad": 3323,
  "mada": 20247,
  "madamente": 16124,
  "made": 48347,
  "mado": 10790,
  "mados": 29840,
  "madre": 41592,
  "madrid": 11339,
  "madura": 4503,
  "maduras": 25703,
  "madÃ©n": 29260,
  "mag": 25899,
  "mago": 14134,
  "mail": 2752,
  "main": 33957,
  "mal": 8830,
  "mala": 13701,
  "malaga": 36590,
  "males": 47277,
  "mamente": 16231,
  "man": 825,
  "mana": 5099,
  "manas": 22420,
  "mand": 39251,
  "manda": 47502,
  "mando": 35869,
  "manente": 14683,
  "manera": 42320,
  "manes": 8359,
  "mani": 33344,
  "mania": 4163,
  "manif": 47516,
  "mann": 11885,
  "mano": 4558,
  "manos": 22884,
  "mans": 48001,
  "mante": 20590,
  "mantes": 47679,
  "manuel": 23299,
  "many": 37060,
  "manÃŃa": 37125,
  "map": 42642,
  "mar": 1208,
  "mara": 30071,
  "maras": 7606,
  "marca": 32193,
  "maria": 45871,
  "marian": 37429,
  "marianorajoy": 40005,
  "marido": 50013,
  "mark": 42682,
  "marketing": 47699,
  "marque": 29176,
  "mart": 7417,
  "martin": 47893,
  "martph": 9972,
  "mas": 734,
  "mascar": 27671,
  "master": 23018,
  "mata": 46004,
  "mate": 12206,
  "matismo": 48692,
  "max": 37203,
  "may": 15559,
  "mayo": 38110,
  "mayor": 22365,
  "mb": 20151,
  "mbi": 2888,
  "mbito": 36569,
  "mbol": 8090,
  "mc": 47874,
  "md": 43574,
  "me": 1079,
  "mec": 33076,
  "med": 4213,
  "medi": 33763,
  "media": 7835,
  "mediatamente": 37643,
  "medidas": 36986,
  "medio": 9206,
  "medios": 49723,
  "medium": 25539,
  "medo": 22753,
  "mega": 33336,
  "meida": 21020,
  "mej": 37345,
  "mejor": 12376,
  "mejorar": 43486,
  "mel": 14315,
  "mela": 23345,
  "melada": 39383,
  "melo": 22688,
  "melÃ³": 45123,
  "memoria": 48871,
  "men": 1190,
  "mena": 37392,
  "menas": 45813,
  "mencias": 40718,
  "mend": 9024,
  "menda": 21151,
  "mendia": 45591,
  "menes": 3810,
  "menos": 11870,
  "mens": 34508,
  "ment": 9800,
  "menta": 4369,
  "mentaciÃ³n": 4292,
  "mentada": 41289,
  "mentado": 7564,
  "mentados": 32312,
  "mental": 10959,
  "mentales": 34155,
  "mentar": 4003,
  "mentas": 18414,
  "mente": 645,
  "menti": 49352,
  "mento": 2157,
  "mentos": 2919,
  "ments": 21279,
  "mer": 4272,
  "mera": 21549,
  "meras": 25726,
  "mercado": 36051,
  "mercados": 41229,
  "merce": 26718,
  "mero": 15210,
  "meros": 32712,
  "mers": 44872,
  "mes": 6227,
  "mesa": 24050,
  "met": 14551,
  "metro": 9877,
  "metros": 7344,
  "mez": 25871,
  "mg": 42141,
  "mi": 796,
  "mia": 25327,
  "mic": 24975,
  "mica": 7711,
  "micas": 15482,
  "mico": 9734,
  "micos": 17194,
  "micro": 39118,
  "mid": 39373,
  "miem": 38799,
  "miento": 1008,
  "mientos": 2667,
  "mientras": 39674,
  "mier": 49191,
  "mil": 19507,
  "militar": 42618,
  "millones": 47803,
  "min": 701,
  "mina": 9210,
  "minas": 13120,
  "ming": 25868,
  "minis": 27872,
  "ministr": 2077,
  "ministra": 2496,
  "ministraciÃ³n": 2679,
  "ministrativo": 19937,
  "ministro": 8164,
  "ministros": 21956,
  "mino": 19362,
  "minos": 13698,
  "minton": 46028,
  "minutos": 14330,
  "mio": 14545,
  "mios": 24191,
  "mir": 9748,
  "mira": 20186,
  "mirante": 44878,
  "mis": 9080,
  "misible": 26527,
  "misiones": 22885,
  "misiÃ³n": 6856,
  "mismo": 40715,
  "mit": 27061,
  "mita": 11244,
  "mitas": 38572,
  "mite": 3268,
  "mites": 4943,
  "mith": 37677,
  "mitir": 4722,
  "mitÃŃa": 45822,
  "ml": 4710,
  "mlin": 39635,
  "mm": 6448,
  "mmm": 41025,
  "mmmm": 23212,
  "mn": 26244,
  "mnium": 26517,
  "mo": 494,
  "mob": 31143,
  "mociÃ³n": 17429,
  "mod": 12221,
  "modelo": 37485,
  "moder": 30249,
  "modern": 46331,
  "modo": 40537,
  "moh": 22064,
  "mol": 13300,
  "molinos": 30275,
  "mom": 36023,
  "momix": 46295,
  "mon": 2933,
  "monar": 28933,
  "mond": 24564,
  "mones": 22594,
  "mono": 45862,
  "mons": 10974,
  "mont": 44356,
  "monte": 19935,
  "mor": 6162,
  "moral": 23454,
  "more": 30813,
  "mos": 774,
  "mosa": 28061,
  "moslo": 41405,
  "moso": 20264,
  "moteca": 33552,
  "motor": 40070,
  "mous": 49947,
  "mov": 19012,
  "movil": 9871,
  "mp": 485,
  "mping": 47841,
  "mpl": 1061,
  "mple": 22690,
  "mpoco": 3625,
  "ms": 7040,
  "mserso": 42824,
  "msterdam": 33387,
  "mu": 7625,
  "mua": 45438,
  "mucha": 42911,
  "muchas": 28784,
  "mucho": 25556,
  "muchos": 29394,
  "mujer": 19707,
  "mujeres": 37636,
  "mul": 23327,
  "mun": 14009,
  "mund": 23153,
  "mundo": 17329,
  "municip": 39898,
  "mur": 49427,
  "mus": 11644,
  "museo": 49263,
  "music": 39493,
  "mut": 39828,
  "muy": 7864,
  "mw": 39280,
  "mx": 38749,
  "my": 10801,
  "mÃ¡": 1932,
  "mÃ¡dena": 41235,
  "mÃ¡genes": 15811,
  "mÃ¡n": 4921,
  "mÃ¡s": 6724,
  "mÃ¡tica": 4680,
  "mÃ¡ticamente": 10193,
  "mÃ¡ticas": 6213,
  "mÃ¡tico": 6500,
  "mÃ¡ticos": 8572,
  "mÃ©": 39139,
  "mÃ³": 28566,
  "mÃ³n": 11488,
  "mÃ³nica": 40423,
  "mÃ³s": 12453,
  "mÃ³vil": 8713,
  "mÃŃn": 13905,
  "n": 131,
  "na": 561,
  "nab": 22329,
  "nabis": 25640,
  "nac": 37743,
  "nacional": 1682,
  "nacionales": 39593,
  "nada": 17052,
  "nadie": 31770,
  "nado": 7594,
  "nah": 39741,
  "nal": 9672,
  "nan": 15671,
  "nar": 6488,
  "nas": 2137,
  "natural": 36605,
  "nav": 18227,
  "navarra": 27274,
  "nbsp": 46995,
  "nchez": 20097,
  "nd": 15143,
  "nde": 41505,
  "ndez": 28347,
  "ndo": 41897,
  "ndose": 37231,
  "ne": 1876,
  "nea": 18770,
  "neario": 23856,
  "nearios": 47738,
  "neas": 41525,
  "neces": 18734,
  "necesario": 45518,
  "ned": 23859,
  "nedo": 22919,
  "nedy": 31422,
  "nega": 48972,
  "nego": 29882,
  "nel": 18442,
  "nen": 35213,
  "neo": 32001,
  "ner": 3660,
  "nero": 37095,
  "neros": 21031,
  "ners": 25613,
  "nes": 1822,
  "nesio": 35735,
  "ness": 14356,
  "net": 1923,
  "nete": 20014,
  "neth": 49845,
  "nett": 44581,
  "new": 37137,
  "news": 43232,
  "nex": 44700,
  "ney": 8021,
  "ng": 47240,
  "ngel": 29092,
  "ni": 5799,
  "nia": 13907,
  "nic": 30480,
  "nica": 13548,
  "nicamente": 39779,
  "nicas": 40008,
  "niciÃ³n": 47666,
  "nico": 18624,
  "nicos": 35121,
  "nidad": 5667,
  "nie": 19155,
  "nik": 43945,
  "nin": 19769,
  "ning": 11238,
  "ninguna": 38563,
  "ningÃºn": 37182,
  "nino": 40756,
  "nio": 22215,
  "nis": 10107,
  "nistÃŃa": 17363,
  "nium": 23762,
  "nivel": 40862,
  "nn": 21755,
  "no": 555,
  "noc": 16587,
  "noche": 37436,
  "nol": 48190,
  "nombre": 31932,
  "non": 24402,
  "nor": 38143,
  "norm": 20174,
  "normal": 37336,
  "norte": 45248,
  "nos": 1024,
  "nosis": 47656,
  "noslo": 47291,
  "noso": 43799,
  "nosotros": 40839,
  "notas": 46631,
  "noticia": 14226,
  "noticias": 13553,
  "nov": 2744,
  "nova": 13606,
  "novaciÃ³n": 48169,
  "now": 16169,
  "ns": 13495,
  "nt": 41703,
  "ntilde": 47675,
  "nu": 34059,
  "nuestra": 46907,
  "nuestro": 42622,
  "nueva": 28687,
  "nuevas": 49644,
  "nuevo": 25952,
  "nuevos": 48331,
  "num": 40238,
  "nunca": 21159,
  "ny": 9992,
  "nÃ©": 35570,
  "nÃ©s": 36802,
  "nÃºmero": 25136,
  "o": 132,
  "oC": 18155,
  "oa": 16747,
  "oacute": 30597,
  "ob": 466,
  "oba": 16041,
  "obal": 44960,
  "obar": 21259,
  "obe": 31906,
  "obed": 15740,
  "obendas": 15073,
  "ober": 2895,
  "obern": 3968,
  "obia": 30832,
  "obier": 831,
  "obierno": 869,
  "obili": 5055,
  "obiliario": 11883,
  "obje": 49754,
  "objetivo": 49804,
  "oblaciÃ³n": 17707,
  "oble": 42333,
  "oblig": 43990,
  "obliga": 23534,
  "obligatorio": 26036,
  "obo": 12917,
  "obos": 16757,
  "obra": 40450,
  "obrar": 28745,
  "obrarbe": 37566,
  "obras": 43012,
  "obre": 578,
  "obs": 17483,
  "oc": 731,
  "ocaciÃ³n": 20771,
  "ocada": 47246,
  "ocado": 4220,
  "ocal": 22778,
  "ocas": 16178,
  "oci": 538,
  "ociaciÃ³n": 2311,
  "ocial": 29490,
  "ociales": 42491,
  "ocimiento": 12233,
  "ocin": 30660,
  "ocina": 38834,
  "ocio": 32454,
  "ocito": 48346,
  "ocitos": 36375,
  "ock": 15442,
  "ockey": 28484,
  "oco": 3459,
  "ocola": 34284,
  "ocos": 12846,
  "ocu": 1297,
  "ocul": 22610,
  "ocus": 32536,
  "od": 478,
  "odamente": 28872,
  "odas": 16440,
  "ode": 11819,
  "odel": 43942,
  "odela": 24393,
  "odelacalle": 25391,
  "oder": 6854,
  "odes": 35975,
  "odi": 45235,
  "odia": 20728,
  "odin": 30447,
  "odio": 23519,
  "odle": 46874,
  "odo": 33770,
  "odor": 41331,
  "odoro": 24681,
  "odos": 7633,
  "ody": 23029,
  "odÃ©": 33906,
  "of": 18156,
  "ofens": 39747,
  "ofer": 36861,
  "off": 22596,
  "oficial": 35857,
  "og": 759,
  "ogado": 43868,
  "ogene": 30370,
  "ogia": 43640,
  "ogle": 3524,
  "ogra": 6230,
  "ografia": 29027,
  "ografÃŃa": 8353,
  "ografÃŃas": 25841,
  "ogue": 24118,
  "ogÃ¡n": 39148,
  "ogÃ©n": 15963,
  "ogÃŃa": 16467,
  "oh": 42254,
  "ojo": 32136,
  "ok": 1789,
  "oke": 22002,
  "okie": 27707,
  "okies": 42585,
  "oko": 24181,
  "oku": 30666,
  "ol": 380,
  "ola": 1457,
  "olan": 37039,
  "olanda": 17843,
  "olar": 22020,
  "olas": 10980,
  "old": 22668,
  "olencia": 11609,
  "oles": 9706,
  "olf": 37836,
  "olgico": 48247,
  "oli": 12970,
  "olia": 49940,
  "oliber": 14525,
  "olin": 19278,
  "olina": 5511,
  "olinos": 38780,
  "olis": 18254,
  "olita": 34026,
  "olito": 33812,
  "oll": 9468,
  "olla": 11996,
  "ollas": 31399,
  "ollers": 39914,
  "ollo": 25182,
  "ollos": 37052,
  "olls": 39000,
  "olo": 4388,
  "oloc": 31830,
  "oloca": 28769,
  "olocausto": 30527,
  "olog": 1259,
  "ologa": 22134,
  "ologia": 8106,
  "ologies": 41414,
  "ologistas": 13803,
  "ology": 21812,
  "ologÃŃa": 1687,
  "ologÃŃas": 4511,
  "olor": 26979,
  "olos": 39037,
  "ols": 22809,
  "olu": 1857,
  "oluble": 47889,
  "olucin": 19957,
  "olucion": 6482,
  "olucionamos": 43776,
  "oluciones": 8124,
  "oluciÃ³n": 1905,
  "olution": 28131,
  "olux": 42188,
  "olv": 5792,
  "olvemos": 25589,
  "olvencia": 45486,
  "olvente": 31436,
  "olver": 3285,
  "olviendo": 22694,
  "olvieron": 49711,
  "olviÃ³": 18655,
  "olÃ³g": 1869,
  "olÃ³gica": 4727,
  "olÃ³gicamente": 17679,
  "olÃ³gicas": 6963,
  "olÃ³gico": 4253,
  "olÃ³gicos": 6233,
  "olÃŃtico": 31949,
  "om": 357,
  "oma": 1795,
  "omado": 29292,
  "omagn": 32607,
  "oman": 19810,
  "omaquia": 30252,
  "omar": 17918,
  "omas": 2967,
  "omasa": 23985,
  "omasaje": 32803,
  "omb": 3176,
  "omba": 17778,
  "ombas": 40043,
  "omberg": 43117,
  "ombi": 8207,
  "ombia": 7486,
  "ombis": 43864,
  "ombo": 37193,
  "ombre": 6029,
  "ombres": 41448,
  "ome": 1567,
  "omec": 32625,
  "omed": 28039,
  "omedicina": 48457,
  "omen": 13385,
  "omentar": 39196,
  "omento": 6532,
  "omer": 18148,
  "omero": 49408,
  "ometrÃŃa": 24587,
  "omez": 43513,
  "omi": 22506,
  "omia": 18883,
  "omillo": 47067,
  "omin": 1283,
  "omina": 10837,
  "ominaciÃ³n": 21661,
  "omio": 39628,
  "omiso": 30572,
  "omla": 33031,
  "omm": 37372,
  "omo": 1510,
  "omon": 48377,
  "omos": 2029,
  "oms": 32756,
  "omun": 43843,
  "omus": 44447,
  "omÃ©": 9275,
  "omÃŃa": 1875,
  "omÃŃas": 44300,
  "on": 323,
  "ona": 744,
  "onada": 31580,
  "onado": 11731,
  "onal": 21230,
  "onales": 29728,
  "onancia": 21072,
  "onar": 31437,
  "onario": 42763,
  "onas": 2750,
  "onato": 4902,
  "onatos": 32047,
  "onazo": 37212,
  "oncesto": 8176,
  "ond": 790,
  "onda": 3809,
  "ondas": 11012,
  "onde": 899,
  "ondeo": 36509,
  "onder": 29821,
  "ondo": 5203,
  "ondos": 42818,
  "one": 3312,
  "oneidad": 33813,
  "oner": 45983,
  "onera": 32652,
  "onero": 26728,
  "oneros": 38458,
  "onerÃŃa": 40935,
  "ones": 763,
  "onesa": 9820,
  "onesas": 32327,
  "oneses": 15106,
  "onesia": 23760,
  "oneta": 48896,
  "oney": 23994,
  "ong": 4862,
  "onga": 21563,
  "oni": 6882,
  "onia": 4689,
  "onial": 36789,
  "onias": 27518,
  "onic": 24422,
  "onio": 39123,
  "onismo": 43099,
  "onista": 31034,
  "online": 21114,
  "onmano": 17982,
  "onna": 25483,
  "onne": 48699,
  "ono": 1774,
  "onomÃŃa": 48402,
  "onos": 2687,
  "onosti": 17771,
  "onostia": 11652,
  "ons": 13972,
  "onso": 3452,
  "ont": 4417,
  "onta": 36950,
  "onte": 7093,
  "ontes": 39822,
  "onto": 15847,
  "ony": 11695,
  "onz": 3047,
  "onÃ©s": 13706,
  "onÃŃa": 7491,
  "oo": 4610,
  "ood": 7318,
  "ooo": 27895,
  "oooo": 11843,
  "oooooooo": 27896,
  "op": 11561,
  "opa": 38108,
  "open": 42270,
  "oper": 26873,
  "opera": 38575,
  "operaciÃ³n": 41845,
  "opin": 14842,
  "opinion": 17067,
  "oport": 34815,
  "oposiciÃ³n": 48694,
  "or": 326,
  "ora": 611,
  "orable": 40622,
  "oraciones": 33409,
  "oraciÃ³n": 9625,
  "orada": 35621,
  "orado": 9479,
  "orajoy": 39721,
  "oral": 48476,
  "orama": 33706,
  "oran": 43277,
  "orar": 8518,
  "oras": 5517,
  "oraya": 15982,
  "orbe": 49904,
  "orca": 4684,
  "orcio": 8488,
  "orcios": 49926,
  "ord": 905,
  "orde": 46316,
  "orden": 11476,
  "ordenadas": 30130,
  "ordin": 2342,
  "ordina": 23424,
  "ords": 18400,
  "ore": 5828,
  "oreka": 45003,
  "oreparacion": 38663,
  "orero": 21836,
  "orerÃŃa": 24527,
  "ores": 630,
  "orestaciÃ³n": 37370,
  "oreste": 23250,
  "orf": 40038,
  "orfos": 42876,
  "orfosis": 49821,
  "org": 5196,
  "organ": 13125,
  "organizaciÃ³n": 46771,
  "orge": 11006,
  "orghini": 50197,
  "orgul": 33205,
  "ori": 25856,
  "oria": 5105,
  "orias": 20197,
  "oridad": 37711,
  "orio": 8977,
  "orios": 8451,
  "ork": 4001,
  "orld": 8212,
  "orm": 520,
  "orma": 679,
  "orme": 3730,
  "ormemente": 19259,
  "ormente": 4198,
  "ormes": 10448,
  "orn": 1509,
  "ornada": 30633,
  "ornadas": 47118,
  "ornal": 47908,
  "orne": 23826,
  "oro": 2945,
  "oroeste": 15651,
  "oros": 8522,
  "orr": 1823,
  "orra": 5776,
  "orral": 42042,
  "orras": 30834,
  "orre": 47629,
  "orrilla": 33498,
  "orro": 4459,
  "orror": 47689,
  "orros": 9732,
  "orroza": 45017,
  "ors": 14843,
  "ort": 4304,
  "orte": 1856,
  "ortes": 29041,
  "orth": 30383,
  "ortmund": 31897,
  "orts": 47312,
  "ortun": 8493,
  "ortunadamente": 18733,
  "ory": 24126,
  "orza": 37168,
  "orÃŃa": 2739,
  "orÃŃas": 4989,
  "os": 314,
  "osa": 2414,
  "osamente": 32016,
  "osas": 9396,
  "ose": 25968,
  "osex": 11640,
  "osidad": 12687,
  "osis": 34659,
  "oso": 2389,
  "osofia": 41319,
  "osofÃŃa": 7179,
  "osos": 7379,
  "osotras": 25130,
  "osotros": 6596,
  "osovo": 44071,
  "oss": 29991,
  "osten": 8961,
  "osÃ©": 37881,
  "ot": 8914,
  "ota": 6072,
  "otas": 11422,
  "ote": 11189,
  "oto": 11166,
  "otra": 31476,
  "otro": 33771,
  "otros": 1706,
  "ots": 40020,
  "ou": 21199,
  "out": 37535,
  "ov": 30140,
  "ova": 18415,
  "ovas": 46305,
  "over": 44256,
  "ow": 8786,
  "ox": 8736,
  "oxer": 42680,
  "oxid": 24361,
  "oy": 704,
  "oya": 6372,
  "oz": 44546,
  "oÃ±a": 43034,
  "p": 133,
  "pa": 440,
  "pablo": 25023,
  "pablocasado": 31060,
  "pac": 19925,
  "pace": 26168,
  "pacho": 27260,
  "paciones": 42368,
  "paciÃ³n": 3906,
  "pack": 35459,
  "pact": 49980,
  "pacto": 22717,
  "pad": 16065,
  "pada": 12337,
  "padas": 19288,
  "pado": 5031,
  "pados": 14196,
  "padre": 50181,
  "pagar": 29215,
  "page": 39134,
  "pagne": 47703,
  "pago": 35216,
  "pagos": 48774,
  "pain": 20922,
  "pais": 21613,
  "paje": 15694,
  "pal": 5072,
  "pald": 11479,
  "palense": 34697,
  "pales": 38535,
  "palo": 32251,
  "pam": 10765,
  "pan": 3110,
  "pando": 30933,
  "panish": 34000,
  "panol": 22360,
  "pany": 11969,
  "panyol": 15359,
  "papel": 31196,
  "par": 529,
  "para": 2511,
  "parable": 22328,
  "parables": 41561,
  "paracion": 7373,
  "paraciÃ³n": 47460,
  "parar": 48209,
  "paras": 33613,
  "pard": 41052,
  "pardo": 34785,
  "parece": 31101,
  "parencia": 14488,
  "park": 48857,
  "parlamentar": 48683,
  "parlamento": 49269,
  "paro": 42190,
  "paron": 28219,
  "parque": 45265,
  "parr": 32129,
  "parra": 38634,
  "parrÃ³s": 44890,
  "parse": 14587,
  "part": 32896,
  "partam": 3338,
  "partamento": 4019,
  "partamentos": 10163,
  "parte": 17331,
  "parti": 28553,
  "partid": 17732,
  "partida": 30828,
  "partido": 30997,
  "partir": 32828,
  "partito": 18458,
  "parto": 41891,
  "pas": 1738,
  "pasa": 23942,
  "paso": 37639,
  "pass": 47944,
  "passo": 40296,
  "pata": 26800,
  "patas": 36220,
  "pate": 33016,
  "patitis": 32209,
  "patr": 18576,
  "patÃŃa": 18882,
  "paz": 32481,
  "pazo": 42014,
  "paÃ±": 531,
  "paÃ±a": 708,
  "paÃ±as": 7877,
  "paÃ±ol": 916,
  "pc": 47094,
  "pciÃ³n": 2090,
  "pd": 37647,
  "pdf": 20995,
  "pe": 527,
  "pea": 12193,
  "peace": 22250,
  "peando": 49568,
  "pear": 33140,
  "pec": 833,
  "pech": 35677,
  "pecia": 47781,
  "pectiva": 23630,
  "pecto": 1841,
  "pectos": 4423,
  "ped": 1831,
  "pedal": 12292,
  "pedia": 10685,
  "pedro": 29952,
  "peed": 48199,
  "peig": 40472,
  "pel": 1942,
  "pela": 28963,
  "pelig": 46776,
  "pell": 16563,
  "pello": 44991,
  "pelo": 25757,
  "pen": 5284,
  "pena": 41630,
  "pend": 2081,
  "penha": 28254,
  "pens": 6283,
  "pensa": 18125,
  "pensaciÃ³n": 45943,
  "pensar": 36979,
  "peo": 22012,
  "peque": 32721,
  "per": 543,
  "pera": 2985,
  "peraciÃ³n": 2161,
  "peradores": 45541,
  "perar": 29348,
  "peras": 18430,
  "perativa": 44194,
  "percib": 18216,
  "pere": 46026,
  "perio": 26066,
  "period": 21677,
  "pero": 4499,
  "peros": 27639,
  "perras": 32458,
  "pers": 14005,
  "person": 12069,
  "persona": 45672,
  "personal": 21271,
  "personales": 41383,
  "personas": 34471,
  "pert": 43363,
  "pertino": 49964,
  "pertura": 17020,
  "pes": 4843,
  "pesa": 46653,
  "pesca": 44787,
  "pese": 42923,
  "peso": 22674,
  "pest": 34056,
  "peta": 13221,
  "petas": 24399,
  "pete": 30804,
  "peto": 25957,
  "peuta": 23981,
  "peutas": 33549,
  "pez": 12567,
  "peÃ±as": 19655,
  "peÃ³n": 42249,
  "pf": 45170,
  "pg": 29159,
  "ph": 4007,
  "pha": 36384,
  "phic": 39033,
  "phone": 22609,
  "php": 18984,
  "phy": 26516,
  "pi": 792,
  "pia": 3308,
  "piala": 24669,
  "piar": 34792,
  "pias": 8766,
  "pic": 1967,
  "pica": 16262,
  "pical": 39063,
  "picamente": 40114,
  "picas": 45041,
  "pice": 32252,
  "pices": 32447,
  "pico": 22369,
  "picos": 37555,
  "pid": 24112,
  "pida": 25746,
  "pide": 30868,
  "pido": 18187,
  "pidos": 32036,
  "pie": 20802,
  "piedra": 43654,
  "piel": 49679,
  "pien": 30024,
  "piens": 49730,
  "pier": 37034,
  "pies": 35392,
  "pieza": 41465,
  "pil": 7705,
  "pilaciÃ³n": 36009,
  "pin": 4758,
  "pina": 32627,
  "ping": 28301,
  "pino": 20949,
  "pio": 7355,
  "pios": 17366,
  "pir": 3415,
  "pira": 5566,
  "piraciÃ³n": 7983,
  "pire": 29109,
  "piri": 36620,
  "piro": 15361,
  "piros": 28635,
  "pis": 22152,
  "pista": 9537,
  "pistas": 14181,
  "pita": 32812,
  "pital": 1440,
  "pitales": 10334,
  "piter": 26887,
  "pito": 19137,
  "pitos": 39770,
  "piz": 28865,
  "piÃ©": 9338,
  "piÃ©s": 28950,
  "piÃ±a": 36102,
  "piÃ³": 18951,
  "pl": 599,
  "pla": 6188,
  "plan": 10013,
  "plana": 27374,
  "pland": 34377,
  "plano": 40924,
  "plante": 39099,
  "plas": 19509,
  "plataforma": 45752,
  "play": 14392,
  "player": 46859,
  "plaza": 27289,
  "ple": 1612,
  "ples": 5177,
  "plex": 24047,
  "plica": 8813,
  "plicaciÃ³n": 44385,
  "plicar": 49668,
  "plicas": 35324,
  "plin": 48085,
  "plit": 48178,
  "plo": 22956,
  "plug": 44345,
  "plural": 49576,
  "plus": 24734,
  "pm": 33635,
  "pn": 27974,
  "po": 495,
  "pob": 48982,
  "poca": 25186,
  "poco": 8263,
  "pod": 9846,
  "podemos": 21448,
  "poder": 23121,
  "podrÃŃa": 40723,
  "point": 42933,
  "pol": 3181,
  "poldo": 24014,
  "pole": 17241,
  "poli": 13403,
  "policia": 36549,
  "polio": 49574,
  "polis": 25132,
  "politan": 11078,
  "politica": 17765,
  "pollo": 49089,
  "polo": 18409,
  "polÃŃtica": 24221,
  "polÃŃticas": 48195,
  "polÃŃtico": 38281,
  "pon": 591,
  "pona": 19098,
  "ponder": 44577,
  "pone": 1947,
  "ponemos": 25836,
  "ponen": 25622,
  "ponentes": 45968,
  "poner": 3570,
  "ponerse": 18540,
  "pones": 15466,
  "ponga": 45309,
  "pongo": 16002,
  "poniendo": 36836,
  "pool": 13188,
  "pop": 31665,
  "popul": 10638,
  "popular": 21514,
  "populares": 18527,
  "populi": 16566,
  "por": 534,
  "pora": 46745,
  "porque": 12813,
  "port": 1948,
  "porta": 6102,
  "portable": 28985,
  "portaciÃ³n": 49382,
  "portada": 49095,
  "portadas": 33894,
  "portal": 49334,
  "portar": 8587,
  "portavoz": 41151,
  "porte": 1722,
  "ported": 36712,
  "portes": 7813,
  "porting": 36800,
  "portivo": 14028,
  "porto": 22850,
  "ports": 31460,
  "portu": 41420,
  "portun": 27869,
  "portunidad": 49766,
  "portunidades": 33794,
  "pos": 616,
  "posa": 22237,
  "posas": 32093,
  "posi": 1848,
  "posible": 34929,
  "posicin": 19306,
  "posiciones": 5224,
  "posiciÃ³n": 1276,
  "posio": 40159,
  "positivas": 41290,
  "positivo": 38564,
  "poso": 35222,
  "post": 31646,
  "pot": 8649,
  "pote": 29754,
  "potencia": 20638,
  "potente": 33865,
  "pp": 6035,
  "ppen": 28936,
  "pper": 33534,
  "pping": 27931,
  "ppy": 35907,
  "ppÃ©": 42197,
  "pr": 1960,
  "pra": 7244,
  "pre": 1618,
  "precio": 17700,
  "pregun": 40554,
  "prema": 19206,
  "premo": 5503,
  "prend": 2954,
  "prende": 29544,
  "prender": 30291,
  "prensa": 28266,
  "preocu": 32796,
  "pres": 673,
  "presa": 34780,
  "presente": 41697,
  "president": 40593,
  "presidente": 27783,
  "presiÃ³n": 6743,
  "press": 9242,
  "prestig": 26813,
  "pri": 37065,
  "prim": 5674,
  "prime": 39543,
  "primer": 32433,
  "primera": 35823,
  "primir": 9882,
  "princip": 28119,
  "print": 33328,
  "prio": 40291,
  "pris": 32465,
  "prise": 43450,
  "privada": 45568,
  "pro": 1339,
  "problema": 45406,
  "problemas": 47379,
  "proces": 32237,
  "proceso": 44448,
  "procÃ©s": 21953,
  "produc": 14837,
  "producciÃ³n": 20945,
  "producto": 48977,
  "productos": 42962,
  "prof": 37744,
  "profes": 17635,
  "profesional": 26670,
  "program": 34522,
  "programa": 30406,
  "progres": 42402,
  "promo": 33911,
  "prona": 48598,
  "prop": 47126,
  "propi": 13820,
  "propia": 39863,
  "propor": 44993,
  "protec": 45797,
  "protecciÃ³n": 48981,
  "proteg": 43975,
  "provech": 23809,
  "provin": 31142,
  "provincia": 47466,
  "proyec": 35921,
  "proyecto": 17527,
  "proyectos": 47139,
  "prud": 42341,
  "prudencia": 21481,
  "prueba": 39873,
  "prÃ¡c": 28272,
  "prÃ©s": 25674,
  "ps": 3388,
  "psia": 18124,
  "psic": 37602,
  "psis": 24646,
  "pso": 28475,
  "psoe": 28637,
  "psol": 18329,
  "pson": 22929,
  "pt": 30138,
  "pta": 31524,
  "pti": 2047,
  "ptiembre": 2567,
  "ptiles": 46568,
  "ptima": 37086,
  "ptimo": 41589,
  "pto": 17395,
  "pu": 722,
  "publ": 5318,
  "publica": 40845,
  "publico": 28342,
  "puch": 20244,
  "pucha": 45674,
  "puchinos": 31267,
  "pue": 10281,
  "pueblo": 50192,
  "pued": 15413,
  "puede": 15435,
  "pueden": 43538,
  "puedes": 39009,
  "puer": 46360,
  "puerca": 49616,
  "pues": 749,
  "puesta": 1603,
  "puestamente": 11003,
  "puestas": 2614,
  "puesto": 1562,
  "puestos": 2119,
  "pugn": 36848,
  "pul": 1090,
  "pula": 11572,
  "pulaciones": 34757,
  "pular": 2083,
  "pulares": 35471,
  "pulas": 49068,
  "pulo": 29592,
  "pulos": 18935,
  "puma": 20713,
  "pun": 22296,
  "punta": 47459,
  "punto": 24891,
  "puntura": 46878,
  "pur": 12256,
  "pura": 35909,
  "purs": 43739,
  "purua": 47092,
  "pus": 13016,
  "puso": 20441,
  "puta": 49065,
  "putaciÃ³n": 44336,
  "puÃ©s": 1114,
  "px": 26241,
  "py": 4382,
  "pyright": 5344,
  "pÃ¡": 13978,
  "pÃ¡g": 36968,
  "pÃ¡rate": 40493,
  "pÃ©": 26256,
  "pÃ©u": 47214,
  "pÃ³": 7274,
  "pÃ³n": 5589,
  "pÃ³sito": 23860,
  "pÃºbl": 5225,
  "pÃºblica": 5422,
  "pÃºblicas": 47623,
  "pÃºsculo": 37063,
  "pÃŃ": 21335,
  "pÃŃa": 21850,
  "pÃŃn": 48569,
  "pÃŃxeles": 39397,
  "q": 134,
  "qa": 31428,
  "ql": 45596,
  "qo": 49212,
  "qr": 44067,
  "qu": 414,
  "qua": 31113,
  "quadra": 18260,
  "que": 335,
  "queado": 47661,
  "queda": 3790,
  "quedad": 41088,
  "quedas": 14163,
  "quel": 1361,
  "quen": 6245,
  "quena": 33863,
  "quense": 26424,
  "queo": 13577,
  "quer": 4295,
  "quera": 9363,
  "queras": 9399,
  "queria": 46981,
  "querido": 16971,
  "quero": 9977,
  "queros": 11856,
  "querra": 20183,
  "querÃŃa": 13784,
  "querÃŃas": 35358,
  "ques": 2054,
  "quesa": 19576,
  "questa": 9668,
  "quet": 26307,
  "queta": 10996,
  "quetas": 10955,
  "quete": 18182,
  "quetes": 26210,
  "quez": 5435,
  "queÃ±o": 49026,
  "qui": 837,
  "quia": 5904,
  "quial": 19375,
  "quias": 19774,
  "quicia": 15469,
  "quie": 7712,
  "quien": 24365,
  "quier": 818,
  "quiera": 4517,
  "quiere": 31423,
  "quil": 1636,
  "quila": 31407,
  "quilib": 5298,
  "quilibrio": 45558,
  "quilidad": 9257,
  "quilla": 9059,
  "quillaje": 46110,
  "quillas": 19428,
  "quillo": 9095,
  "quillos": 31379,
  "quilo": 43274,
  "quim": 23430,
  "quin": 13282,
  "quina": 5186,
  "quinaria": 39658,
  "quinas": 8504,
  "quines": 38468,
  "quino": 28399,
  "quinto": 48886,
  "quio": 16109,
  "quios": 33523,
  "quir": 3987,
  "quis": 2472,
  "quisiciÃ³n": 27479,
  "quisitos": 26642,
  "quismo": 17838,
  "quista": 9346,
  "quistas": 20593,
  "quita": 12826,
  "quitas": 29797,
  "quitec": 3704,
  "quito": 8868,
  "quitos": 21352,
  "quiv": 14732,
  "quivir": 25290,
  "quiz": 27331,
  "quiÃ¡": 26672,
  "quiÃ©n": 19108,
  "quo": 17966,
  "quot": 45072,
  "quÃ©": 4039,
  "quÃ©s": 13376,
  "quÃŃ": 1241,
  "quÃŃa": 5547,
  "quÃŃas": 28688,
  "quÃŃmica": 30714,
  "quÃŃmico": 32331,
  "quÃŃn": 7182,
  "r": 135,
  "ra": 392,
  "raba": 12975,
  "rac": 3010,
  "racena": 30089,
  "racia": 3616,
  "raciones": 20598,
  "raciÃ³n": 2165,
  "racle": 43673,
  "racÃŃn": 43220,
  "rad": 12542,
  "rada": 6742,
  "radas": 18377,
  "radez": 39131,
  "radi": 41760,
  "radio": 26840,
  "rado": 4543,
  "rador": 28532,
  "rados": 12333,
  "rael": 5981,
  "raestruc": 4712,
  "raf": 49508,
  "rafo": 9216,
  "rafos": 20333,
  "rag": 2457,
  "ragon": 9268,
  "ragÃ³n": 4201,
  "ragÃ¼": 27940,
  "raje": 40766,
  "rak": 35684,
  "ral": 4702,
  "ralejo": 21609,
  "rales": 30543,
  "raltar": 13979,
  "ram": 2072,
  "rama": 22243,
  "rame": 37697,
  "rameda": 26805,
  "ramendi": 49390,
  "ramien": 3027,
  "ramienta": 41278,
  "ramientas": 22252,
  "ramientos": 35003,
  "ramos": 26927,
  "ramurdi": 48607,
  "ran": 513,
  "rana": 12321,
  "ranco": 20982,
  "rand": 17837,
  "rando": 28405,
  "raneo": 27961,
  "range": 19641,
  "rano": 6298,
  "rans": 22829,
  "rante": 9186,
  "rantes": 3999,
  "ranz": 49252,
  "ranza": 34857,
  "rar": 3735,
  "raron": 35412,
  "rarse": 26452,
  "ras": 707,
  "rase": 23880,
  "rash": 48547,
  "rasia": 47306,
  "rasil": 6570,
  "rate": 14569,
  "rax": 48866,
  "ray": 4587,
  "raya": 12469,
  "razo": 36534,
  "rd": 44519,
  "re": 337,
  "rea": 1710,
  "reak": 22739,
  "reaking": 25275,
  "real": 6788,
  "realmadrid": 34271,
  "ream": 20034,
  "reas": 3833,
  "reat": 44217,
  "reau": 47756,
  "rec": 656,
  "recciÃ³n": 11614,
  "recemos": 16772,
  "recen": 14294,
  "reci": 19720,
  "recife": 24698,
  "reco": 48647,
  "recom": 46621,
  "record": 45466,
  "recortes": 44218,
  "recto": 47990,
  "rector": 16177,
  "rectora": 47353,
  "recu": 26195,
  "recuperar": 48252,
  "red": 2060,
  "rededor": 22442,
  "redi": 35255,
  "redientes": 29632,
  "redo": 41581,
  "ree": 34826,
  "ref": 19032,
  "refer": 34406,
  "reg": 2280,
  "rego": 36998,
  "regor": 41313,
  "regulaciÃ³n": 42540,
  "regular": 41843,
  "rein": 45640,
  "reis": 42864,
  "rel": 39064,
  "rela": 18500,
  "relaciÃ³n": 40942,
  "relig": 44747,
  "rell": 12974,
  "rellana": 44055,
  "remo": 11533,
  "remos": 3639,
  "ren": 5861,
  "rence": 36318,
  "rend": 1160,
  "renda": 17785,
  "renta": 31040,
  "renunci": 39713,
  "reo": 1676,
  "reos": 10762,
  "reparacion": 21042,
  "reparacionlav": 35300,
  "repres": 30512,
  "requerido": 17886,
  "rer": 28826,
  "rera": 2186,
  "reras": 48187,
  "rero": 7891,
  "reros": 35789,
  "rerÃŃa": 18243,
  "rerÃŃas": 48666,
  "res": 383,
  "resa": 13441,
  "rese": 26605,
  "respeto": 45259,
  "respon": 1976,
  "responsabilidad": 32829,
  "responsable": 36914,
  "ress": 42236,
  "resta": 28500,
  "restaurante": 49871,
  "reste": 19841,
  "resul": 48238,
  "ret": 26595,
  "reta": 21443,
  "rete": 36757,
  "reto": 6248,
  "retro": 36791,
  "rev": 29978,
  "rey": 15447,
  "rez": 2313,
  "reza": 25165,
  "reÃ±a": 30331,
  "reÃ±o": 29087,
  "ri": 556,
  "ria": 7172,
  "riaga": 27838,
  "rial": 49080,
  "rian": 25374,
  "riana": 30936,
  "riarte": 27592,
  "rias": 28188,
  "rib": 1109,
  "riba": 5466,
  "ribas": 39880,
  "ribles": 21570,
  "ric": 14406,
  "rica": 18372,
  "rich": 30434,
  "rico": 23049,
  "ricos": 29951,
  "rido": 3929,
  "rie": 10873,
  "riel": 8155,
  "ries": 9128,
  "riesgo": 39934,
  "rieta": 21621,
  "rieto": 17596,
  "rig": 3781,
  "right": 5179,
  "rigor": 15501,
  "rigues": 41634,
  "riguren": 50031,
  "rija": 29447,
  "rik": 49879,
  "rika": 40433,
  "ril": 10199,
  "rile": 4633,
  "rilla": 12760,
  "rillo": 49759,
  "rim": 7938,
  "rimadas": 14632,
  "rin": 17261,
  "rina": 48405,
  "rincon": 45071,
  "rino": 40367,
  "rio": 2721,
  "rioja": 46898,
  "rion": 26959,
  "riones": 39952,
  "rios": 13068,
  "rique": 3993,
  "rir": 6028,
  "ris": 1568,
  "risa": 8135,
  "risas": 18851,
  "rista": 18560,
  "ristal": 34317,
  "risto": 16137,
  "ristÃ¡n": 35613,
  "rit": 35984,
  "rita": 14816,
  "ritas": 15882,
  "rite": 15591,
  "rito": 6446,
  "ritos": 10611,
  "ritu": 32903,
  "ritÃ¡n": 4337,
  "riv": 49688,
  "rix": 47573,
  "riz": 35566,
  "riÃ¡n": 30722,
  "riÃ±a": 48837,
  "riÃ³": 3644,
  "rn": 29179,
  "ro": 365,
  "robo": 37941,
  "rock": 30768,
  "roco": 25123,
  "roe": 41593,
  "roga": 10355,
  "roid": 8310,
  "roides": 42723,
  "roja": 29548,
  "rojo": 33587,
  "rol": 9245,
  "roll": 45622,
  "rom": 11954,
  "romial": 49222,
  "romialgia": 49854,
  "romo": 22648,
  "ron": 2209,
  "rones": 24499,
  "room": 44108,
  "ror": 2113,
  "ros": 1262,
  "rosa": 14083,
  "rosas": 34431,
  "rosis": 40426,
  "roso": 5090,
  "rosoft": 8884,
  "rosos": 28184,
  "ross": 15699,
  "rota": 27052,
  "rov": 47210,
  "row": 41248,
  "roy": 43460,
  "roz": 38952,
  "roÃ±o": 6959,
  "rr": 16237,
  "rrrr": 42888,
  "rs": 28857,
  "rtel": 14565,
  "rtve": 33536,
  "ru": 590,
  "rubia": 34350,
  "rubio": 47966,
  "rue": 4674,
  "ruecos": 9394,
  "rum": 14455,
  "rump": 3670,
  "run": 43838,
  "rup": 6438,
  "rupciÃ³n": 4086,
  "ruz": 3095,
  "ruÃ±a": 36008,
  "ry": 6275,
  "rÃ¡": 972,
  "rÃ¡c": 12405,
  "rÃ¡fico": 11681,
  "rÃ¡n": 2043,
  "rÃ¡nea": 14534,
  "rÃ¡neas": 31738,
  "rÃ¡neo": 7102,
  "rÃ¡neos": 29841,
  "rÃ¡s": 5903,
  "rÃ¡tica": 14131,
  "rÃ¡ticas": 37661,
  "rÃ¡tico": 10006,
  "rÃ¡ticos": 26174,
  "rÃ¡ul": 18208,
  "rÃ©": 20725,
  "rÃ©is": 40298,
  "rÃ³": 7321,
  "rÃ³n": 8198,
  "rÃ³polis": 41067,
  "rÃł": 45208,
  "rÃŃ": 2544,
  "rÃŃa": 3315,
  "rÃŃamos": 16477,
  "rÃŃan": 20207,
  "rÃŃas": 32482,
  "rÃŃe": 31392,
  "rÃŃguez": 4027,
  "rÃŃquez": 42081,
  "s": 136,
  "sa": 1286,
  "sab": 17844,
  "sabes": 48731,
  "sabilidad": 11715,
  "sable": 10336,
  "sables": 24761,
  "sac": 44215,
  "sada": 46590,
  "sado": 9591,
  "sage": 50256,
  "sahari": 29765,
  "sal": 5871,
  "sales": 31092,
  "salud": 26141,
  "saludos": 49841,
  "salv": 49048,
  "salvo": 31978,
  "san": 4276,
  "sanchez": 16725,
  "sanchezcastejon": 20287,
  "sange": 36196,
  "sapp": 22311,
  "sar": 6221,
  "sas": 4238,
  "sasua": 27102,
  "sat": 42392,
  "say": 45593,
  "scar": 10992,
  "sch": 37637,
  "sche": 23664,
  "se": 491,
  "sea": 11817,
  "sec": 15056,
  "seca": 26944,
  "segu": 1318,
  "seguida": 17698,
  "seguir": 21300,
  "segun": 30523,
  "segur": 9273,
  "segura": 20727,
  "seguridad": 12541,
  "seguro": 33539,
  "segÃºn": 21284,
  "seis": 30870,
  "sel": 20167,
  "sela": 23909,
  "sele": 41811,
  "selec": 48158,
  "self": 42521,
  "sell": 33638,
  "selo": 12718,
  "sem": 20050,
  "semble": 40964,
  "sen": 5891,
  "senal": 17842,
  "senger": 22622,
  "sens": 38898,
  "sentido": 40527,
  "seo": 30258,
  "seos": 45600,
  "ser": 9687,
  "serv": 12142,
  "servici": 33655,
  "servicio": 28221,
  "servicioreparacion": 38813,
  "servicios": 29541,
  "serÃ¡": 29587,
  "serÃŃa": 38085,
  "ses": 9804,
  "sese": 45556,
  "set": 11705,
  "sever": 28517,
  "sevilla": 47652,
  "sex": 12197,
  "sexo": 48716,
  "sexual": 38226,
  "sexuales": 49779,
  "sey": 19053,
  "seÃ±": 11606,
  "seÃ±or": 29955,
  "sh": 9448,
  "share": 26784,
  "shop": 32899,
  "shore": 48562,
  "show": 37903,
  "si": 2412,
  "sia": 32788,
  "sic": 21305,
  "sica": 17711,
  "sico": 33667,
  "sicos": 45306,
  "siempre": 16925,
  "sier": 32353,
  "sig": 30775,
  "sigue": 30752,
  "sil": 32983,
  "sim": 20492,
  "simo": 46533,
  "sin": 6553,
  "sina": 41308,
  "sing": 37594,
  "sinki": 49893,
  "sino": 47071,
  "sion": 14465,
  "sional": 47382,
  "siones": 3363,
  "sip": 29267,
  "sipras": 38047,
  "sis": 22035,
  "sistema": 41779,
  "sito": 49077,
  "siÃ³n": 1715,
  "sk": 34134,
  "ski": 30430,
  "sky": 40471,
  "smartph": 26570,
  "smartphone": 36646,
  "smartphones": 46481,
  "so": 805,
  "sobre": 14366,
  "soci": 10026,
  "socia": 22821,
  "social": 18774,
  "sociales": 36888,
  "sociedad": 27809,
  "soe": 15160,
  "software": 39484,
  "sol": 12009,
  "solini": 45713,
  "solo": 18019,
  "solu": 19333,
  "som": 46044,
  "somos": 32304,
  "son": 604,
  "sona": 47658,
  "sonaro": 33910,
  "sor": 10834,
  "sorprend": 48303,
  "sos": 1478,
  "sosten": 42694,
  "sot": 45476,
  "sour": 49597,
  "source": 19666,
  "sovia": 38878,
  "soy": 35829,
  "sp": 38454,
  "ss": 5962,
  "sson": 49398,
  "sss": 37654,
  "ssss": 17315,
  "ssssssss": 42076,
  "st": 12300,
  "sta": 8697,
  "star": 25687,
  "stata": 38491,
  "status": 21698,
  "ste": 10971,
  "stein": 30750,
  "ster": 15876,
  "sterdam": 32850,
  "stica": 10442,
  "sticas": 29794,
  "stico": 28802,
  "sticos": 48955,
  "str": 24765,
  "stre": 35094,
  "string": 31265,
  "stru": 9131,
  "su": 3317,
  "sub": 15081,
  "substring": 31659,
  "substringWithoutBreakingWords": 31775,
  "sul": 34670,
  "sula": 7797,
  "sulas": 28613,
  "sum": 38637,
  "sun": 21922,
  "sunami": 27407,
  "sung": 11388,
  "super": 18701,
  "sur": 21275,
  "surf": 47995,
  "sus": 14416,
  "sy": 34614,
  "sÃ©": 40095,
  "sÃ³": 35525,
  "sÃ³lo": 20858,
  "sÃŃ": 16682,
  "t": 137,
  "ta": 344,
  "taba": 3336,
  "taban": 7975,
  "tabilidad": 25485,
  "table": 4585,
  "tables": 11955,
  "tabria": 3439,
  "tac": 1198,
  "taca": 15329,
  "tacas": 37015,
  "tacazo": 45410,
  "tach": 46632,
  "tacin": 13723,
  "tacion": 28001,
  "taciones": 1872,
  "taciÃ³n": 952,
  "tacular": 5443,
  "tad": 1209,
  "tada": 1358,
  "tadas": 2516,
  "tadero": 26907,
  "tadi": 47567,
  "tado": 577,
  "tador": 4183,
  "tadora": 16474,
  "tadoras": 30182,
  "tadores": 5368,
  "tados": 885,
  "tadura": 9313,
  "taduras": 29218,
  "taforma": 35584,
  "tag": 5351,
  "tage": 28558,
  "tagena": 8604,
  "tagon": 2304,
  "tagram": 7704,
  "tah": 32871,
  "tain": 22678,
  "tainment": 32245,
  "taje": 17719,
  "tak": 48758,
  "tal": 479,
  "tala": 42659,
  "talaya": 36361,
  "tale": 40927,
  "talegre": 34188,
  "tales": 2871,
  "taleza": 28249,
  "talgia": 21799,
  "talia": 4376,
  "talizas": 23739,
  "talla": 3066,
  "taller": 45374,
  "talm": 31514,
  "talo": 16319,
  "talos": 35707,
  "tam": 501,
  "tama": 43609,
  "tamante": 25972,
  "tambiÃ©n": 15986,
  "tame": 24647,
  "tamen": 7363,
  "tamente": 1154,
  "tamento": 19697,
  "tamiento": 1110,
  "tamientos": 3545,
  "tamina": 25396,
  "taminaciÃ³n": 36508,
  "tamo": 9586,
  "tamos": 1227,
  "tan": 448,
  "tana": 4340,
  "tanas": 8375,
  "tanasia": 30686,
  "tanatorio": 38590,
  "tancia": 1680,
  "tancial": 42062,
  "tancias": 3922,
  "tand": 11376,
  "tander": 4478,
  "tando": 1282,
  "tane": 37359,
  "taneidad": 46152,
  "tanes": 32869,
  "tang": 19568,
  "tangular": 33005,
  "tania": 31714,
  "tano": 6440,
  "tanos": 11229,
  "tant": 41209,
  "tante": 909,
  "tantes": 1205,
  "tanto": 19549,
  "tany": 47704,
  "tanya": 34708,
  "tanyahu": 37127,
  "tanza": 48203,
  "tappen": 41287,
  "tar": 415,
  "tara": 7017,
  "taran": 30144,
  "tard": 19737,
  "tardecer": 26644,
  "taremos": 23578,
  "tari": 31975,
  "taria": 2900,
  "tariado": 11393,
  "tariamente": 19138,
  "tarias": 8538,
  "tario": 1843,
  "tarios": 3766,
  "tarismo": 36919,
  "tarla": 42641,
  "tarle": 16266,
  "tarlo": 14272,
  "tarnos": 32125,
  "taro": 37393,
  "taron": 3077,
  "tarra": 19142,
  "tarras": 23553,
  "tarse": 3241,
  "tarte": 42914,
  "tarÃ¡": 2456,
  "tarÃ¡n": 6461,
  "tarÃ©": 43762,
  "tarÃŃa": 3247,
  "tas": 455,
  "tasa": 41540,
  "tasar": 26632,
  "tase": 13189,
  "tasen": 32948,
  "tasio": 38752,
  "tasis": 26930,
  "taste": 47720,
  "tasuna": 22479,
  "tat": 14280,
  "tate": 16309,
  "tation": 16234,
  "tativa": 12784,
  "tativas": 8125,
  "tativo": 13299,
  "tativos": 24560,
  "tato": 30322,
  "tats": 37409,
  "taur": 45938,
  "tavo": 2635,
  "tavoces": 11834,
  "tavoz": 3237,
  "taxis": 36466,
  "tay": 22151,
  "tayud": 24414,
  "taza": 40901,
  "tazo": 29347,
  "taÃ±a": 9576,
  "taÃ±o": 18448,
  "tbol": 2208,
  "tc": 46928,
  "tch": 14350,
  "td": 29488,
  "te": 342,
  "tea": 10441,
  "teada": 45806,
  "teado": 14071,
  "teados": 49485,
  "tean": 48930,
  "teando": 34392,
  "tear": 15661,
  "teas": 32655,
  "teatro": 37294,
  "teau": 31285,
  "teaux": 47709,
  "tec": 1337,
  "teca": 3213,
  "tecar": 12184,
  "tecario": 21593,
  "tecas": 6019,
  "tecciÃ³n": 2435,
  "tech": 24232,
  "tecn": 9897,
  "tecnia": 31161,
  "tecnico": 48974,
  "tecnicolav": 40180,
  "tecnicos": 49789,
  "tecnologÃŃa": 22602,
  "tecÃŃa": 46637,
  "ted": 1804,
  "tedes": 8562,
  "tedra": 15503,
  "tedral": 7880,
  "teen": 37491,
  "teg": 1180,
  "tega": 7235,
  "tegi": 13666,
  "tegia": 41354,
  "tegr": 13752,
  "tegraciÃ³n": 43518,
  "tegramente": 17115,
  "tegui": 15241,
  "tein": 14788,
  "teis": 35246,
  "teiz": 23203,
  "tel": 1007,
  "tela": 7414,
  "telaciÃ³n": 15511,
  "telar": 48154,
  "telas": 40467,
  "tele": 14704,
  "telerÃŃa": 9513,
  "teles": 3770,
  "televisiÃ³n": 47772,
  "telig": 4126,
  "tell": 4271,
  "tella": 6362,
  "tellano": 6332,
  "tellas": 15894,
  "telli": 49455,
  "tellig": 43072,
  "tello": 39794,
  "tellos": 49824,
  "tellÃ³n": 17457,
  "telo": 14362,
  "tem": 14047,
  "temos": 19874,
  "temp": 8425,
  "tempor": 9823,
  "temporada": 16405,
  "temporal": 45706,
  "tems": 25564,
  "ten": 410,
  "tena": 5989,
  "tenario": 17405,
  "tenas": 18129,
  "tenberg": 49207,
  "tencia": 2045,
  "tencias": 18879,
  "tenciÃ³n": 5029,
  "tend": 2019,
  "tende": 40006,
  "tendemos": 26846,
  "tender": 3223,
  "tendido": 32517,
  "tendiendo": 37538,
  "tendo": 14229,
  "tendrÃ¡": 31455,
  "tenegro": 40010,
  "tenemos": 31247,
  "tener": 13129,
  "tenga": 9478,
  "tengo": 38639,
  "tenido": 8159,
  "tenimiento": 43039,
  "tenistas": 45711,
  "tenos": 23520,
  "tens": 13331,
  "tense": 10881,
  "tensiÃ³n": 19406,
  "tenta": 9655,
  "tente": 7945,
  "tentes": 14912,
  "tento": 21227,
  "tentr": 48863,
  "teo": 6252,
  "teos": 16022,
  "ter": 402,
  "tera": 1489,
  "teral": 6592,
  "terales": 11667,
  "terapia": 9481,
  "teras": 3767,
  "teratura": 4582,
  "tercera": 36918,
  "terdam": 29953,
  "tere": 47978,
  "teres": 20532,
  "terest": 40319,
  "teri": 886,
  "teria": 6160,
  "terial": 10330,
  "teriales": 18501,
  "terias": 12311,
  "teridad": 16254,
  "tering": 27920,
  "terio": 1840,
  "terior": 1433,
  "teriores": 3139,
  "teriormente": 4320,
  "terios": 4407,
  "termia": 49517,
  "termin": 2140,
  "tern": 18656,
  "terna": 6304,
  "ternal": 34600,
  "ternas": 31841,
  "ternidad": 15140,
  "terno": 23786,
  "tero": 1918,
  "terona": 39748,
  "teros": 4850,
  "terr": 7861,
  "terra": 7211,
  "terrado": 46401,
  "terramiento": 30787,
  "terrar": 38046,
  "terres": 21182,
  "terri": 35468,
  "territorial": 49767,
  "terror": 15724,
  "terrorista": 25418,
  "ters": 5590,
  "terÃŃa": 3207,
  "terÃŃas": 8291,
  "tes": 435,
  "tese": 37483,
  "tesis": 7691,
  "test": 36090,
  "tet": 24117,
  "tete": 24943,
  "teto": 20832,
  "teur": 17088,
  "tex": 12731,
  "texto": 20131,
  "tez": 12491,
  "teza": 17408,
  "tezas": 48263,
  "teÃ³": 15452,
  "tf": 49931,
  "th": 2067,
  "tha": 20300,
  "than": 17188,
  "the": 19710,
  "ther": 9068,
  "therine": 38522,
  "thers": 30243,
  "thing": 50076,
  "this": 42026,
  "thle": 8583,
  "thletic": 8708,
  "thon": 37977,
  "thor": 44376,
  "thur": 28568,
  "thy": 28633,
  "ti": 338,
  "tia": 2441,
  "tiago": 3559,
  "tian": 14840,
  "tiana": 35418,
  "tiano": 36194,
  "tias": 22251,
  "tibilidad": 10865,
  "tibilidades": 46879,
  "tible": 4612,
  "tibles": 7854,
  "tic": 635,
  "tica": 663,
  "ticaciÃ³n": 41140,
  "tical": 29496,
  "ticamente": 3351,
  "ticano": 16718,
  "ticapital": 25311,
  "ticar": 36293,
  "ticas": 1053,
  "tice": 28910,
  "ticen": 24382,
  "tices": 16741,
  "tici": 23186,
  "ticia": 2400,
  "ticias": 4675,
  "ticidad": 14682,
  "ticio": 26196,
  "ticiones": 44803,
  "ticios": 49227,
  "ticismo": 24789,
  "ticiÃ³n": 12228,
  "tick": 39876,
  "ticle": 42423,
  "tico": 808,
  "ticor": 17379,
  "ticorrupciÃ³n": 18435,
  "ticos": 1151,
  "tics": 16834,
  "tid": 4640,
  "tida": 3454,
  "tidad": 1474,
  "tidamente": 39205,
  "tidas": 5580,
  "tidez": 50106,
  "tido": 1163,
  "tidor": 26396,
  "tidora": 36363,
  "tidores": 30574,
  "tidos": 3740,
  "tie": 26641,
  "tiel": 28419,
  "tiembre": 42055,
  "tiempo": 19106,
  "tiempos": 37208,
  "tien": 4549,
  "tienda": 15061,
  "tiende": 9960,
  "tienden": 18916,
  "tiendo": 3169,
  "tiene": 2363,
  "tienen": 4981,
  "tienes": 35565,
  "tientes": 28732,
  "tienza": 50180,
  "tier": 17467,
  "tiera": 14961,
  "tieran": 31232,
  "tieron": 6057,
  "tierra": 27252,
  "tierro": 36920,
  "ties": 18749,
  "tiese": 42487,
  "tif": 1691,
  "tifica": 21293,
  "tificaciones": 38822,
  "tificaciÃ³n": 7962,
  "tificada": 47003,
  "tificado": 11912,
  "tificados": 36556,
  "tificar": 9859,
  "tify": 22845,
  "tig": 4360,
  "tiga": 17932,
  "tigado": 48496,
  "tigar": 24532,
  "tigo": 4874,
  "tigos": 10773,
  "tigu": 21566,
  "tigÃ¼": 26606,
  "tija": 46842,
  "tijo": 22374,
  "tik": 41608,
  "til": 696,
  "tila": 38146,
  "tilaciÃ³n": 33983,
  "tild": 27373,
  "tilde": 27790,
  "tileno": 47485,
  "tiles": 4197,
  "tilidad": 13316,
  "till": 10443,
  "tilla": 1904,
  "tillana": 29123,
  "tillas": 5664,
  "tille": 25832,
  "tillero": 25753,
  "tilleros": 36951,
  "tillerÃŃa": 30438,
  "tillo": 4796,
  "tillos": 16381,
  "tilo": 43206,
  "tim": 1772,
  "tima": 5027,
  "timamente": 18020,
  "timar": 46959,
  "timas": 10078,
  "time": 32622,
  "timedia": 9889,
  "timidad": 9896,
  "timiento": 24147,
  "timo": 5472,
  "timon": 8542,
  "timos": 5212,
  "tin": 661,
  "tina": 2422,
  "tinacionales": 19145,
  "tinado": 36767,
  "tinal": 19684,
  "tinales": 32094,
  "tinamente": 26676,
  "tinas": 8853,
  "tine": 25414,
  "tinencia": 39178,
  "tiner": 10128,
  "tines": 9874,
  "ting": 2887,
  "tings": 40719,
  "tinho": 37209,
  "tini": 30133,
  "tinio": 31082,
  "tino": 2788,
  "tinos": 7799,
  "tinto": 21174,
  "tiny": 23931,
  "tinyent": 28992,
  "tio": 1864,
  "tion": 2990,
  "tional": 9987,
  "tiones": 39164,
  "tions": 13237,
  "tios": 5058,
  "tipo": 10747,
  "tipos": 13014,
  "tique": 4121,
  "tiques": 47394,
  "tiquetas": 5945,
  "tir": 879,
  "tira": 29787,
  "tiremos": 35063,
  "tires": 33018,
  "tiri": 43482,
  "tiro": 22524,
  "tis": 1017,
  "tisf": 22128,
  "tisfacciÃ³n": 33545,
  "tish": 23290,
  "tismo": 5289,
  "tismos": 24902,
  "tista": 5751,
  "tistas": 6060,
  "tiste": 17945,
  "tit": 31823,
  "tita": 17169,
  "titas": 25156,
  "titis": 21765,
  "tito": 9350,
  "titos": 21870,
  "titu": 829,
  "tituciÃ³n": 11638,
  "titud": 3554,
  "titudes": 8698,
  "tiu": 37526,
  "tius": 41558,
  "tiv": 444,
  "tiva": 769,
  "tivaciÃ³n": 22912,
  "tivamente": 3129,
  "tivar": 12462,
  "tivas": 1333,
  "tive": 7088,
  "tives": 30240,
  "tividad": 3034,
  "tividades": 10650,
  "tivin": 37964,
  "tivismo": 22647,
  "tivista": 34727,
  "tivistas": 43467,
  "tivo": 664,
  "tivos": 926,
  "tiz": 2333,
  "tiza": 11769,
  "tizaciones": 30445,
  "tizaciÃ³n": 6207,
  "tizada": 15286,
  "tizadas": 31413,
  "tizado": 9864,
  "tizador": 32878,
  "tizadores": 43601,
  "tizados": 16876,
  "tizan": 36427,
  "tizando": 43555,
  "tizantes": 17610,
  "tizar": 10419,
  "tizia": 16393,
  "tizo": 32764,
  "tizos": 43638,
  "tizÃ³": 31745,
  "tiÃ©n": 38480,
  "tiÃ©ndose": 24042,
  "tiÃ±o": 33263,
  "tiÃ³": 2573,
  "tiÃ³n": 18122,
  "tl": 31072,
  "tle": 12658,
  "tm": 16557,
  "tn": 6435,
  "tnam": 20852,
  "tner": 34765,
  "tners": 24001,
  "to": 348,
  "tock": 10776,
  "toda": 21749,
  "todas": 25199,
  "todavÃŃa": 37380,
  "todo": 3552,
  "todos": 6679,
  "tol": 5264,
  "tola": 24345,
  "tolado": 49590,
  "toles": 13080,
  "tologÃŃa": 7709,
  "tolÃ³gica": 26312,
  "tolÃ³gicas": 31020,
  "tolÃ³gico": 24500,
  "tolÃ³gicos": 33758,
  "tom": 12668,
  "toma": 29456,
  "tomas": 42522,
  "tome": 21528,
  "tomeu": 36413,
  "tomÃŃa": 24373,
  "ton": 878,
  "tona": 15640,
  "tonas": 44394,
  "tonces": 2211,
  "tone": 10534,
  "tones": 6507,
  "tonia": 23175,
  "tonio": 19618,
  "tono": 33634,
  "tons": 40259,
  "tonÃŃa": 46730,
  "too": 20642,
  "tooth": 24656,
  "top": 8519,
  "topÃŃa": 25910,
  "tor": 439,
  "tora": 2722,
  "toral": 2737,
  "torales": 26524,
  "toras": 8356,
  "torce": 16523,
  "tore": 14176,
  "tores": 1077,
  "tori": 6769,
  "toria": 863,
  "torial": 2458,
  "toriales": 8214,
  "toriamente": 23122,
  "toriana": 34364,
  "toriano": 27343,
  "torianos": 42216,
  "torias": 3067,
  "toriedad": 22192,
  "torio": 1463,
  "torios": 2818,
  "toris": 39455,
  "torn": 24804,
  "torno": 2747,
  "tornos": 8354,
  "toro": 13255,
  "torra": 45502,
  "torre": 30374,
  "tors": 21212,
  "tory": 16033,
  "torÃŃa": 11803,
  "tos": 408,
  "tosa": 11703,
  "toshop": 26395,
  "toso": 12270,
  "tosos": 30405,
  "total": 24875,
  "totalmente": 44061,
  "tour": 34864,
  "town": 39042,
  "tox": 27117,
  "toya": 25816,
  "toÃ±o": 8335,
  "tr": 345,
  "tra": 480,
  "trabaj": 14556,
  "trabajar": 47121,
  "trabajo": 26563,
  "trac": 12389,
  "tracciones": 30897,
  "traciones": 6995,
  "traciÃ³n": 11995,
  "trad": 40164,
  "trada": 12450,
  "tradas": 29240,
  "trado": 7762,
  "trados": 13291,
  "traf": 33079,
  "traje": 9883,
  "trajes": 18517,
  "tral": 3997,
  "trales": 14897,
  "tralidad": 29247,
  "tram": 33665,
  "tran": 1745,
  "trana": 42964,
  "trancos": 40491,
  "trando": 20869,
  "tranet": 40855,
  "tranos": 44427,
  "trans": 13496,
  "transparencia": 46546,
  "trar": 10162,
  "tras": 682,
  "trasburgo": 26294,
  "trase": 33298,
  "traste": 46701,
  "trate": 9677,
  "trato": 6928,
  "tratos": 41252,
  "trava": 21493,
  "tre": 540,
  "trea": 31914,
  "tream": 47461,
  "tren": 10556,
  "treo": 45867,
  "trera": 28082,
  "tres": 4159,
  "trese": 27066,
  "tri": 13769,
  "tria": 30200,
  "trib": 35079,
  "tribu": 40671,
  "tric": 34069,
  "trica": 10922,
  "tricas": 17471,
  "trices": 10788,
  "trich": 47866,
  "tricidad": 48826,
  "trico": 10860,
  "tricos": 14309,
  "tril": 15878,
  "trillas": 32804,
  "trim": 26616,
  "trina": 11332,
  "trinas": 28820,
  "trio": 15408,
  "trip": 33433,
  "tripartito": 46032,
  "tritis": 36819,
  "trix": 48940,
  "triz": 4765,
  "tro": 492,
  "trocer": 13904,
  "troceram": 19412,
  "troceramica": 48923,
  "troceramicas": 22644,
  "trocin": 7793,
  "trocina": 47619,
  "trod": 2571,
  "trodom": 31518,
  "trodu": 3148,
  "troit": 43089,
  "trol": 7300,
  "trom": 46324,
  "tron": 3675,
  "trong": 35886,
  "tronomÃŃa": 17138,
  "trop": 13458,
  "tropo": 45163,
  "tros": 583,
  "tru": 2405,
  "truc": 1202,
  "trucciones": 21446,
  "trucciÃ³n": 2408,
  "truir": 26769,
  "trum": 4314,
  "truy": 7038,
  "truye": 12865,
  "truyendo": 46977,
  "try": 15416,
  "trÃ¡fico": 24340,
  "trÃ¡n": 21572,
  "trÃ¡s": 5137,
  "trÃ³": 7051,
  "trÃ³geno": 32190,
  "trÃ³leo": 11010,
  "trÃ³n": 40897,
  "trÃ³p": 32509,
  "trÃŃa": 9726,
  "ts": 1861,
  "tsasu": 26716,
  "tse": 25088,
  "tsein": 32222,
  "tsu": 33446,
  "tt": 1307,
  "tta": 20763,
  "tte": 17731,
  "tten": 25367,
  "ttenham": 32211,
  "tter": 15091,
  "tti": 15404,
  "ttle": 21181,
  "tto": 16233,
  "ttp": 1420,
  "tts": 50244,
  "tty": 29499,
  "tu": 381,
  "tua": 11532,
  "tuaciones": 39621,
  "tuaciÃ³n": 18114,
  "tuado": 42071,
  "tual": 2010,
  "tuales": 4293,
  "tualidad": 8825,
  "tualizaciÃ³n": 30408,
  "tualizar": 41717,
  "tualmente": 8320,
  "tuando": 34610,
  "tuania": 33862,
  "tuar": 15017,
  "tuario": 9582,
  "tuarios": 23071,
  "tubre": 2547,
  "tud": 1769,
  "tudes": 5133,
  "tudi": 32264,
  "tudio": 19022,
  "tudios": 26013,
  "tul": 13012,
  "tula": 27199,
  "tulaciÃ³n": 47192,
  "tular": 37645,
  "tuli": 44112,
  "tulia": 16330,
  "tulianos": 46690,
  "tulo": 14419,
  "tulos": 25107,
  "tum": 4443,
  "tund": 8933,
  "tuno": 39788,
  "tuosa": 17624,
  "tuosas": 33522,
  "tuoso": 13832,
  "tuosos": 22984,
  "tup": 22423,
  "tups": 26412,
  "tur": 871,
  "tura": 686,
  "turaciÃ³n": 12518,
  "turada": 23563,
  "turadas": 29306,
  "turado": 11199,
  "turados": 20882,
  "tural": 1369,
  "turales": 3137,
  "turalmente": 40078,
  "turan": 31832,
  "turar": 13909,
  "turas": 1553,
  "turbios": 18868,
  "ture": 10792,
  "tures": 23202,
  "turgia": 36481,
  "turi": 2711,
  "turismo": 16662,
  "turista": 33517,
  "turistas": 47338,
  "turita": 29530,
  "turo": 1975,
  "turÃ³": 34977,
  "tus": 4528,
  "tusias": 10523,
  "tusta": 48005,
  "tut": 36889,
  "tuv": 20688,
  "tuve": 44937,
  "tuviera": 37497,
  "tuvieron": 12448,
  "tuvo": 5508,
  "tuza": 47360,
  "tuÃ¡n": 34373,
  "tv": 14667,
  "tve": 22302,
  "tw": 26192,
  "twitter": 1641,
  "tx": 4827,
  "txa": 23196,
  "txe": 20654,
  "txi": 16509,
  "txo": 19438,
  "txt": 49144,
  "txu": 42017,
  "ty": 6078,
  "tyle": 21708,
  "tz": 5473,
  "tza": 11738,
  "tzaintza": 23886,
  "tzale": 16678,
  "tzales": 36685,
  "tzar": 43030,
  "tzi": 36402,
  "tzsche": 46475,
  "tzu": 47515,
  "tÃ¡": 1237,
  "tÃ¡bamos": 25144,
  "tÃ¡c": 20256,
  "tÃ¡culo": 25700,
  "tÃ¡culos": 29920,
  "tÃ¡gono": 36992,
  "tÃ¡is": 29331,
  "tÃ¡l": 29943,
  "tÃ¡logo": 7958,
  "tÃ¡logos": 28414,
  "tÃ¡menes": 30564,
  "tÃ¡n": 1778,
  "tÃ¡ndo": 11693,
  "tÃ¡ndola": 45357,
  "tÃ¡ndole": 33652,
  "tÃ¡ndolo": 32238,
  "tÃ¡ndonos": 36120,
  "tÃ¡ndose": 12224,
  "tÃ¡ndote": 27069,
  "tÃ¡nica": 40343,
  "tÃ¡nico": 25097,
  "tÃ¡r": 15971,
  "tÃ¡s": 4182,
  "tÃ¡stro": 16882,
  "tÃ¡zar": 45910,
  "tÃ©": 2779,
  "tÃ©cn": 23922,
  "tÃ©cnico": 39422,
  "tÃ©cnicos": 47732,
  "tÃ©is": 28683,
  "tÃ©n": 4444,
  "tÃ©ntalo": 25266,
  "tÃ©r": 10246,
  "tÃ©rate": 49393,
  "tÃ©rpre": 11994,
  "tÃ©s": 12229,
  "tÃ©tica": 14826,
  "tÃ©ticas": 44844,
  "tÃ©tico": 17655,
  "tÃ©ticos": 37206,
  "tÃ³": 862,
  "tÃ³bal": 14281,
  "tÃ³graf": 9028,
  "tÃ³grafo": 45095,
  "tÃ³lica": 9568,
  "tÃ³logo": 33468,
  "tÃ³logos": 37019,
  "tÃ³n": 1560,
  "tÃ³nica": 45109,
  "tÃ³r": 2256,
  "tÃ³rica": 18246,
  "tÃ³ricas": 37818,
  "tÃ³rico": 24602,
  "tÃ³ricos": 39336,
  "tÃº": 6537,
  "tÃºa": 5350,
  "tÃºan": 9657,
  "tÃºe": 19755,
  "tÃºen": 29111,
  "tÃĥ": 34408,
  "tÃŃ": 5276,
  "tÃŃa": 2835,
  "tÃŃan": 12426,
  "tÃŃas": 6569,
  "tÃŃbulo": 33702,
  "tÃŃf": 21979,
  "tÃŃfice": 38234,
  "tÃŃn": 1846,
  "tÃŃo": 44574,
  "tÃŃsima": 24607,
  "tÃŃsimo": 19103,
  "u": 138,
  "ua": 5459,
  "uaga": 34269,
  "ual": 1600,
  "uales": 2680,
  "ualidad": 7652,
  "ualidades": 18179,
  "ualmente": 7348,
  "uan": 12602,
  "uana": 48714,
  "uar": 13302,
  "uario": 28300,
  "ub": 842,
  "ubas": 30027,
  "ube": 10414,
  "uber": 20570,
  "ubert": 48631,
  "ubil": 7480,
  "ubilar": 30678,
  "ubio": 43459,
  "uble": 44305,
  "ubo": 13652,
  "uc": 536,
  "uca": 10581,
  "ucal": 25423,
  "ucalip": 45758,
  "ucar": 13472,
  "ucaristÃŃa": 28977,
  "ucas": 28543,
  "ucci": 29380,
  "ucciÃ³n": 6163,
  "uce": 33802,
  "ucemia": 32014,
  "uces": 6234,
  "uch": 14721,
  "uche": 23376,
  "ucho": 35744,
  "uci": 17322,
  "ucia": 23982,
  "ucita": 43276,
  "uciÃ³n": 1012,
  "uck": 17774,
  "ucker": 29704,
  "ucks": 41061,
  "ucle": 6758,
  "uclear": 26370,
  "uco": 20331,
  "ucos": 10641,
  "ucristo": 20089,
  "ucto": 30774,
  "ucÃŃa": 2319,
  "ud": 507,
  "uda": 1350,
  "udad": 773,
  "udal": 30137,
  "udar": 28209,
  "udas": 7448,
  "ude": 6046,
  "udela": 9189,
  "udencia": 12901,
  "udes": 45633,
  "udi": 35870,
  "udia": 24066,
  "udio": 13107,
  "udita": 41517,
  "udo": 3611,
  "udos": 9849,
  "udÃ³nimo": 35945,
  "udÃŃ": 12738,
  "ue": 329,
  "ueba": 11109,
  "uebas": 29838,
  "uebe": 49009,
  "uebl": 18331,
  "ueble": 9269,
  "uebles": 5711,
  "ueca": 31188,
  "ueces": 18858,
  "ueco": 33479,
  "uecos": 42597,
  "ueda": 44436,
  "ueducto": 41823,
  "uega": 12214,
  "uego": 1972,
  "uegos": 4885,
  "uel": 753,
  "uela": 1763,
  "uelan": 36071,
  "uelas": 5170,
  "uele": 40392,
  "uelen": 30692,
  "ueles": 36679,
  "uelga": 22127,
  "uelle": 17841,
  "uelles": 32402,
  "uelna": 46903,
  "uelo": 3196,
  "uelos": 5456,
  "uelta": 8687,
  "ueltas": 20955,
  "uelto": 9098,
  "ueltos": 18237,
  "uelva": 5765,
  "uelvan": 30906,
  "uelve": 8213,
  "uelven": 18092,
  "uen": 902,
  "uena": 5687,
  "uencias": 4771,
  "uengo": 49232,
  "uer": 621,
  "uera": 27146,
  "ueras": 15218,
  "uerga": 30250,
  "ueros": 42057,
  "uerra": 2492,
  "uerta": 7227,
  "uertas": 14636,
  "uerte": 20041,
  "uerto": 3224,
  "uertos": 10288,
  "uerzo": 19275,
  "ues": 464,
  "uesa": 19170,
  "uesas": 40428,
  "uesca": 7669,
  "ueso": 10691,
  "uesos": 12853,
  "uestra": 1785,
  "uestras": 30592,
  "uestro": 17564,
  "uestros": 29949,
  "uet": 49561,
  "ueta": 16082,
  "uetas": 40146,
  "ueto": 27597,
  "uev": 570,
  "ueva": 2587,
  "uevan": 27438,
  "uevara": 32042,
  "uevas": 11860,
  "ueve": 6313,
  "uevedo": 26972,
  "ueven": 13876,
  "ueves": 2762,
  "uevo": 12946,
  "uevos": 25634,
  "uey": 29073,
  "uez": 10941,
  "ueÃ±a": 36544,
  "ueÃ±o": 23908,
  "uf": 6032,
  "ufac": 25676,
  "ufra": 47631,
  "ug": 2545,
  "uga": 16615,
  "ugas": 38758,
  "uge": 50019,
  "ugeot": 26940,
  "ugh": 19287,
  "ugo": 28563,
  "ugrana": 35834,
  "ugu": 17648,
  "ugur": 34668,
  "uguraciÃ³n": 35887,
  "ugÃŃa": 11016,
  "ui": 14823,
  "uidad": 28335,
  "uis": 29000,
  "uja": 38050,
  "ujo": 29063,
  "uk": 15205,
  "uki": 50196,
  "ul": 467,
  "ula": 1964,
  "ulaciÃ³n": 7924,
  "ulada": 36540,
  "ulado": 29658,
  "ulan": 39917,
  "ular": 2230,
  "ulares": 12656,
  "ulario": 23240,
  "ulas": 3938,
  "ulce": 20424,
  "ule": 15430,
  "ules": 27167,
  "uli": 29653,
  "ulia": 33053,
  "ulidad": 19158,
  "ulin": 46313,
  "ulio": 2275,
  "ull": 5411,
  "ulla": 15903,
  "ullas": 29550,
  "ullo": 41740,
  "ullos": 43915,
  "ulner": 40311,
  "ulo": 5626,
  "uloaga": 35843,
  "ulos": 7012,
  "ulouse": 41093,
  "uls": 15746,
  "ulsivo": 47364,
  "ult": 11841,
  "ulta": 26040,
  "ulto": 45125,
  "ultos": 31047,
  "um": 551,
  "uma": 6805,
  "umacher": 40256,
  "umado": 20627,
  "uman": 26310,
  "umar": 34487,
  "umas": 18485,
  "umatologÃŃa": 48540,
  "umbre": 7374,
  "umbres": 24044,
  "ume": 6990,
  "umen": 3827,
  "umer": 12257,
  "umerables": 21076,
  "umi": 44691,
  "umn": 28489,
  "umo": 2794,
  "ump": 32775,
  "un": 336,
  "una": 1900,
  "unal": 2922,
  "unales": 8407,
  "unar": 17442,
  "unas": 8009,
  "unca": 1863,
  "unch": 43582,
  "unci": 1443,
  "uncia": 3544,
  "uncias": 9740,
  "uncio": 39896,
  "unciÃ³n": 10104,
  "und": 1184,
  "unda": 4719,
  "undacion": 38838,
  "undaciones": 14179,
  "undaciÃ³n": 29968,
  "undai": 36709,
  "undantes": 22305,
  "undation": 35821,
  "unde": 41883,
  "unden": 20774,
  "undi": 29122,
  "undiÃ³": 26941,
  "undo": 5994,
  "undos": 33710,
  "une": 13546,
  "unes": 2482,
  "ung": 7008,
  "unga": 38553,
  "ungalo": 25474,
  "ungalows": 29956,
  "unge": 44288,
  "uni": 45147,
  "unia": 35262,
  "unid": 4351,
  "unida": 44658,
  "unidad": 1595,
  "unidense": 46054,
  "unier": 49007,
  "univers": 28505,
  "unning": 21883,
  "uno": 4583,
  "unos": 12252,
  "unque": 1089,
  "unt": 17482,
  "unta": 1528,
  "untain": 32507,
  "untamente": 9138,
  "untamiento": 1518,
  "untamientos": 6148,
  "untas": 17853,
  "unto": 882,
  "untos": 1462,
  "untry": 36018,
  "untu": 24022,
  "unya": 4852,
  "uo": 8578,
  "uos": 5387,
  "up": 6106,
  "ups": 43043,
  "upÃ©": 49440,
  "uque": 32632,
  "uqueca": 43084,
  "ur": 450,
  "ura": 1240,
  "uraciÃ³n": 6888,
  "urada": 26388,
  "urado": 14568,
  "ural": 2956,
  "urales": 8558,
  "uran": 26994,
  "urante": 890,
  "urar": 14658,
  "uras": 3280,
  "urban": 44514,
  "urce": 15698,
  "urcia": 13386,
  "urdes": 20800,
  "urdi": 46536,
  "ure": 7803,
  "uregui": 45609,
  "uren": 34467,
  "urense": 10137,
  "ures": 38815,
  "uretano": 49046,
  "urez": 18757,
  "urg": 17475,
  "urgentes": 48117,
  "urgia": 44145,
  "uri": 9703,
  "uria": 13174,
  "urio": 35950,
  "urios": 21925,
  "urity": 33666,
  "uriz": 29846,
  "url": 40328,
  "urmet": 24390,
  "urnal": 21386,
  "urne": 22033,
  "uro": 747,
  "uros": 1015,
  "urra": 45847,
  "urre": 44504,
  "urrecciÃ³n": 20301,
  "urs": 21369,
  "urt": 15487,
  "urto": 29064,
  "urtois": 49185,
  "uru": 38723,
  "ury": 42939,
  "urÃ³": 28395,
  "urÃŃa": 14782,
  "us": 422,
  "usa": 5545,
  "usal": 15563,
  "usamente": 20485,
  "usas": 15368,
  "usco": 42999,
  "use": 6516,
  "usel": 30307,
  "uselas": 6838,
  "user": 34927,
  "ush": 19632,
  "ushima": 48821,
  "usia": 19457,
  "usiera": 48588,
  "usieron": 17014,
  "usion": 36870,
  "usiones": 7454,
  "usiÃ³n": 1602,
  "usk": 3762,
  "uso": 1298,
  "usoleo": 45892,
  "usos": 6210,
  "uss": 15344,
  "ussa": 33682,
  "usse": 21117,
  "ussi": 23007,
  "ussia": 34029,
  "ust": 26656,
  "usta": 27792,
  "uste": 21766,
  "uster": 34608,
  "usto": 7164,
  "uston": 27984,
  "ustr": 1407,
  "ut": 3158,
  "uta": 4787,
  "utad": 30746,
  "utas": 7522,
  "utat": 33226,
  "ute": 23961,
  "utense": 12968,
  "uter": 27428,
  "uters": 20944,
  "uth": 17935,
  "util": 10960,
  "utm": 14110,
  "uto": 9781,
  "utor": 18416,
  "utos": 10002,
  "utr": 4600,
  "utriciÃ³n": 17016,
  "uts": 17794,
  "utu": 6931,
  "utube": 9266,
  "uty": 27969,
  "utz": 35235,
  "uu": 12399,
  "uuuu": 31372,
  "uv": 28139,
  "uve": 47852,
  "ux": 7672,
  "uxe": 29579,
  "uy": 1022,
  "uya": 23883,
  "uye": 1984,
  "uyen": 11998,
  "uyendo": 12748,
  "uyentes": 40424,
  "uyeron": 34817,
  "uyo": 47216,
  "uyÃ³": 23536,
  "uz": 4547,
  "uza": 6584,
  "uzn": 46684,
  "uzz": 39710,
  "uÃ©": 41083,
  "uÃ±": 23185,
  "uÃ±a": 2061,
  "v": 139,
  "va": 1310,
  "vac": 45920,
  "vaca": 34021,
  "vaciÃ³n": 38227,
  "vad": 27168,
  "vada": 19335,
  "vadas": 23026,
  "vado": 15858,
  "vadonga": 33035,
  "vados": 22852,
  "vajal": 30092,
  "val": 2500,
  "vale": 47952,
  "valencia": 24492,
  "valenciacf": 48602,
  "vales": 18867,
  "valles": 19226,
  "valo": 18106,
  "valor": 26262,
  "valos": 21431,
  "valu": 12064,
  "valuaciÃ³n": 14367,
  "valunas": 44102,
  "valÃŃa": 32065,
  "valÃŃas": 44563,
  "vamos": 30000,
  "van": 1380,
  "vana": 41848,
  "vancia": 11450,
  "vanguardia": 43646,
  "vania": 37410,
  "vante": 9061,
  "vaquia": 30270,
  "var": 3346,
  "vard": 26539,
  "vario": 26934,
  "varo": 28738,
  "vas": 5581,
  "vase": 21727,
  "vatar": 19293,
  "vate": 34872,
  "vaya": 45106,
  "vc": 25961,
  "vd": 27128,
  "ve": 865,
  "vech": 2942,
  "vecha": 12357,
  "ved": 25892,
  "veda": 15082,
  "vedas": 46020,
  "vedra": 8415,
  "vejecimiento": 48516,
  "vel": 5381,
  "vela": 3483,
  "vellanos": 45051,
  "velo": 21307,
  "ven": 618,
  "vena": 36387,
  "venciones": 4959,
  "venciÃ³n": 2542,
  "vend": 37000,
  "venes": 2418,
  "venia": 28760,
  "venida": 6466,
  "venidas": 45484,
  "venido": 9480,
  "venidos": 15044,
  "veniente": 17933,
  "venientes": 13962,
  "venir": 6147,
  "veno": 39069,
  "venta": 10363,
  "ventar": 17638,
  "ventas": 37672,
  "ventes": 47560,
  "vento": 49349,
  "ventura": 14381,
  "ver": 761,
  "vera": 10809,
  "verano": 35220,
  "veras": 22767,
  "verd": 8838,
  "verdad": 18073,
  "verde": 9184,
  "verg": 18575,
  "vergadura": 26691,
  "vergÃ¨ncia": 36321,
  "vergÃ¼enza": 34836,
  "vern": 7600,
  "vero": 24908,
  "vers": 4070,
  "versa": 18873,
  "versaciÃ³n": 17728,
  "versiÃ³n": 17004,
  "verte": 28935,
  "vertida": 28069,
  "vertido": 20435,
  "vertidos": 41750,
  "vertir": 13566,
  "very": 29275,
  "ves": 2099,
  "vesa": 36031,
  "vesti": 15053,
  "vestre": 21986,
  "vestres": 39365,
  "vet": 26903,
  "vete": 35166,
  "vey": 27668,
  "vez": 26177,
  "vi": 1076,
  "via": 3177,
  "viado": 22351,
  "vial": 18922,
  "viales": 34651,
  "viamente": 6434,
  "viar": 12039,
  "vias": 10080,
[...]
